</s> 1000000.0
<UNK> 1000000.0
<d> 1000000.0
</d> 1000000.0
<s> 1000000.0
the 68925
to 35583
a 33609
of 31633
in 30471
and 21225
on 18084
for 15948
s 14174
that 12444
lrb 12429
, 12250
is 10636
rrb 10262
obama 10155
president 8455
at 7883
with 7792
his 7700
#### 7611
as 6750
house 6267
new 6257
## 6011
has 5845
from 5251
he 5233
it 5127
an 4874
this 4655
will 4631
republican 4576
by 4393
presidential 4387
are 4210
state 4194
about 4108
senate 4071
be 3948
romney 3878
was 3760
have 3658
campaign 3521
federal 3518
not 3460
former 3372
who 3324
us 3136
more 3112
over 2881
but 2854
sen 2810
# 2790
after 2755
tuesday 2746
clinton 2743
washington 2705
gop 2685
mitt 2651
their 2648
white 2562
one 2558
would 2401
political 2392
up 2344
said 2321
its 2316
republicans 2296
government 2283
week 2247
first 2232
than 2194
out 2150
been 2144
wednesday 2140
rr 2119
what 2113
you 2108
debate 2099
thursday 2092
hillary 2052
### 2044
congress 2025
national 2000
her 1994
they 1948
how 1941
nt 1929
rep 1919
two 1907
last 1864
bill 1864
election 1847
john 1843
candidate 1839
democratic 1836
gov 1829
monday 1822
during 1789
year 1788
we 1780
paul 1764
when 1763
democrats 1761
or 1706
states 1705
news 1694
post 1664
party 1660
governor 1639
most 1589
says 1565
some 1543
friday 1517
time 1515
trump 1506
court 1487
secretary 1479
race 1466
could 1447
against 1437
into 1434
all 1405
according 1400
bush 1397
if 1388
years 1369
poll 1364
no 1355
just 1326
people 1324
iowa 1298
do 1282
administration 1282
why 1266
which 1266
donald 1259
night 1251
committee 1244
before 1240
day 1239
there 1234
had 1222
rick 1214
may 1207
next 1202
department 1201
service 1190
can 1177
she 1123
back 1112
were 1106
million 1105
immigration 1103
ap 1098
vote 1096
budget 1086
here 1077
now 1071
americans 1071
primary 1069
security 1067
plan 1066
other 1053
law 1050
run 1049
r 1046
support 1044
candidates 1042
scott 1040
office 1040
him 1036
american 1016
york 1014
top 1003
so 1002
get 1000
supreme 997
images 989
congressional 985
employees 981
percent 981
i 977
leader 977
voters 975
sunday 967
announced 966
deal 962
down 950
like 949
public 934
speech 922
tax 921
united 918
video 917
should 914
agency 910
speaker 905
press 895
country 893
women 891
report 888
boehner 884
conservative 875
group 873
policy 873
spending 865
jeb 863
big 856
make 854
christie 853
chris 850
majority 848
marriage 844
general 843
today 839
days 833
texas 832
did 831
three 821
ad 820
photo 819
many 815
our 810
biden 810
off 803
health 800
right 793
take 792
leaders 790
while 790
politics 788
even 787
members 785
your 785
debt 782
between 782
does 782
show 778
florida 777
since 774
conference 773
nation 770
made 770
much 769
veterans 769
say 769
d 765
ryan 758
gay 756
rand 749
union 746
another 740
where 740
month 738
lawmakers 738
obamas 738
left 737
military 735
only 727
running 721
gingrich 720
them 718
morning 715
officials 709
south 708
being 707
cruz 706
still 704
vice 704
perry 700
speaks 690
santorum 688
workers 686
plans 685
city 684
rubio 683
released 679
world 674
senator 674
work 674
second 673
end 670
whether 668
saturday 667
might 663
act 655
ted 654
way 650
under 649
help 642
part 640
capitol 639
win 639
foreign 636
care 636
good 636
fight 635
address 631
recent 629
shutdown 628
massachusetts 628
super 628
defense 626
through 625
fix 617
four 612
reform 610
carolina 609
media 608
money 605
shows 603
decision 599
rights 595
among 594
war 593
know 592
cuts 591
official 589
pay 588
very 587
key 587
rodham 586
center 582
think 581
months 578
again 577
jobs 574
chief 573
both 572
nomination 570
every 564
any 563
major 562
gun 561
groups 561
marco 560
going 558
ohio 557
case 557
likely 555
action 554
mark 554
newt 553
university 549
va 549
polls 548
past 546
set 543
jersey 542
few 542
america 541
because 537
long 534
walker 534
issue 533
job 531
early 530
george 529
those 527
weeks 525
questions 523
david 520
need 520
wisconsin 515
hampshire 508
reelection 505
ago 505
five 505
afternoon 503
told 502
economic 500
nominee 500
hill 499
home 498
bid 498
want 497
program 494
change 492
file 491
least 490
called 487
fiscal 485
interview 485
iran 484
little 484
latest 483
sanders 478
pac 478
virginia 476
convention 475
go 474
chairman 474
read 472
affairs 471
march 470
elections 468
meeting 468
nearly 464
things 463
obamacare 462
california 460
samesex 457
question 457
june 457
joe 455
barack 455
supporters 454
use 454
call 454
own 454
social 450
justice 448
north 448
saying 447
issues 447
police 447
reid 445
black 445
eric 445
attorney 444
wants 443
sign 441
control 441
syria 440
family 439
took 436
updated 435
healthcare 434
tea 433
times 432
best 431
hearing 431
well 429
business 429
mcconnell 426
including 425
meet 423
got 423
talk 423
legislation 422
economy 420
story 419
mayor 419
calls 419
look 418
too 418
see 417
effort 417
making 416
late 416
history 414
special 412
rally 411
become 410
brown 408
attacks 407
billion 407
postal 406
attack 406
man 406
move 404
july 404
senators 403
come 403
lead 402
won 399
bernie 399
voting 398
secret 396
executive 396
head 395
close 393
across 393
votes 393
dc 392
outside 391
event 391
director 390
around 390
harry 390
also 389
school 389
number 388
minority 387
face 386
potential 386
reports 382
raise 382
high 380
staff 380
daily 380
mike 378
stop 377
term 376
six 376
asked 376
less 376
scandal 375
michelle 374
democrat 374
ron 373
ahead 373
funding 370
full 369
iraq 369
rky 369
open 367
bipartisan 366
book 366
weekend 365
mitch 365
give 365
battle 364
taking 364
senior 364
laws 363
islamic 360
data 358
watch 358
michael 357
several 356
palin 356
twitter 356
following 355
final 354
west 351
re 351
better 351
cut 350
yet 349
earlier 347
benefits 347
victory 344
already 343
spent 343
wont 342
put 340
nh 340
behind 339
###### 339
talks 337
list 334
keep 333
really 333
town 332
tom 332
hold 332
april 331
college 331
proposal 330
far 328
fact 327
trade 327
ban 327
seat 326
used 326
border 326
private 326
cliff 326
working 325
death 325
conservatives 324
air 324
martin 324
hours 323
abortion 322
rules 322
sarah 321
warren 321
agencies 321
labor 320
problem 319
comes 319
series 319
gets 319
efforts 319
came 318
m 318
almost 317
jon 317
financial 317
ben 317
woman 317
arizona 317
force 317
ads 316
cain 316
makes 315
update 315
power 315
reporters 314
measure 314
rohio 314
nuclear 313
record 313
getting 313
taxes 312
future 311
district 311
sept 309
system 309
start 308
point 308
expected 308
takes 307
push 307
team 306
kerry 306
young 306
benghazi 306
despite 305
clear 305
j 305
small 304
pm 304
trying 303
once 303
judge 302
shooting 302
away 301
services 301
until 301
annual 301
leadership 300
response 300
middle 299
without 298
email 297
mccain 296
irs 295
lot 295
contest 295
biggest 294
november 293
fundraising 293
am 293
voted 293
toward 292
my 292
libya 291
marijuana 291
fall 291
dont 291
jim 290
live 290
important 290
elizabeth 289
challenge 288
never 287
legal 287
each 286
voter 285
claim 285
visit 284
##th 284
international 283
himself 283
field 281
thing 281
energy 281
colorado 280
panel 280
leading 279
stage 279
same 279
jan 277
comments 277
fox 276
##### 276
these 276
calling 276
idea 275
third 275
something 275
research 273
pennsylvania 273
tim 273
line 272
bad 272
bachmann 272
employee 272
crisis 271
wife 271
remarks 271
climate 270
king 270
ve 270
congressman 270
donors 270
governors 270
immigrants 269
place 269
street 268
announcement 268
held 268
hit 268
romneys 267
lost 267
ever 267
means 267
boston 267
vegas 267
las 266
speaking 265
then 265
hard 265
such 265
role 264
w 264
frontrunner 264
information 263
controversial 263
pelosi 262
increase 261
site 261
carson 261
great 261
strategy 261
robert 260
insurance 260
ceiling 260
holder 260
passed 260
midterm 259
campaigns 259
afghanistan 259
personal 258
leave 258
message 258
civil 258
web 257
coming 257
life 257
heres 257
focus 257
nov 256
raised 256
tv 256
game 256
michigan 256
children 256
clintons 255
races 255
revenue 255
ambassador 254
kentucky 254
name 253
enough 252
possible 252
old 252
known 251
found 251
summer 251
oct 251
colbert 250
san 250
popular 249
planned 248
parties 247
real 247
lady 247
china 246
growing 246
seek 245
paid 244
statement 243
herman 242
proposed 241
local 241
half 240
wins 239
delivered 239
went 238
agreement 237
limit 237
elected 237
chicago 237
pass 236
numbers 236
attention 236
internal 236
omalley 236
via 236
trip 236
moment 235
homeland 234
foundation 234
release 234
host 234
ballot 233
matter 233
winning 233
affordable 233
swing 233
talking 232
looking 232
television 232
tonight 231
began 231
current 231
seen 231
using 231
richard 230
must 230
summit 229
violence 229
jr 228
investigation 228
review 228
postabc 227
briefing 227
online 227
alaska 227
rfla 226
steve 226
soon 226
step 226
polling 226
aug 225
policies 225
continue 225
order 225
august 224
front 224
needs 223
turn 223
charles 223
gave 222
goes 222
announce 222
ruling 222
programs 221
chuck 221
doing 221
view 221
amid 220
food 220
millions 220
freedom 220
graham 220
fund 219
missouri 219
criticism 219
tour 218
fire 218
des 218
member 218
russia 218
east 218
problems 217
maryland 217
trail 217
actually 217
jay 216
giving 216
retirement 216
probably 215
star 214
return 214
liberal 213
failed 213
human 213
cnn 213
activists 212
bob 212
nancy 212
wo 212
within 212
allow 212
different 212
find 212
adviser 211
pentagon 211
finds 211
january 210
hagel 210
james 210
tell 209
medicare 209
weiner 209
chance 209
ready 208
sure 207
hall 207
whose 207
thousands 207
strong 206
ferguson 206
reported 206
changes 206
ways 206
moines 205
medical 205
michele 205
organization 205
begin 204
taken 204
todd 204
aide 203
hopeful 203
nevada 203
became 203
county 202
let 202
legislative 202
killed 202
association 202
company 201
management 201
debates 201
cantor 201
men 200
andrew 200
sc 200
rtex 200
launched 200
personnel 200
often 200
huntsman 199
mississippi 199
education 198
emails 198
died 198
seems 197
consider 197
facebook 197
me 196
agenda 196
recently 196
illegal 196
independent 196
building 196
faces 196
sequester 195
protection 195
unemployment 195
politicians 195
stephen 195
claims 195
position 195
ask 194
try 194
wake 193
seeking 193
stand 193
tough 193
free 193
crowd 192
cost 192
isnt 192
presidency 192
session 191
davis 191
troops 191
path 191
sent 190
looks 190
relations 190
dollars 189
central 189
huckabee 189
rate 189
louisiana 189
syrian 189
minister 189
along 189
kansas 189
study 189
ukraine 189
near 188
confirmed 188
global 188
anthony 188
akin 188
raising 188
concerns 187
religious 187
later 187
minnesota 187
chamber 187
mass 187
launch 187
done 187
opposition 187
letter 186
decades 186
pick 186
eight 186
associated 186
rule 186
commission 185
ground 185
shot 185
words 185
wall 184
nbc 184
process 183
utah 183
sandy 182
board 182
facing 182
signed 182
threat 182
having 181
dead 181
rise 181
season 181
class 180
roundup 180
dinner 179
vs 179
leaving 178
avoid 178
overhaul 178
floor 178
continues 178
fla 178
controversy 177
park 177
helped 177
industry 176
community 176
largest 175
believe 175
led 174
coverage 174
events 174
headed 174
cabinet 174
israel 173
lindsey 173
wrong 172
watchdog 172
pressure 172
others 172
records 171
ethics 171
stories 171
officer 171
given 171
couples 171
prime 171
turned 170
susan 170
firm 170
scheduled 170
african 170
seven 169
love 169
doesnt 169
decided 169
quickly 169
offer 169
speak 169
answer 169
arkansas 169
cheney 168
recall 168
courtesy 168
hopes 168
serious 168
survey 167
dnev 167
russian 167
september 167
aimed 167
hits 166
stay 166
room 166
deficit 166
fundraiser 166
bring 166
georgia 166
brought 166
primaries 166
mexico 166
intelligence 166
increasingly 165
signs 164
wage 164
koch 164
environmental 164
nations 164
network 164
institute 164
pat 164
council 163
movement 163
negotiations 162
bloomberg 162
protesters 162
calif 161
alex 161
accused 161
fast 161
officially 161
candidacy 161
charges 161
anniversary 161
chart 160
hurricane 160
together 160
aid 160
bit 160
longer 160
met 159
lsb 159
sexual 159
everyone 159
amendment 159
seeks 159
phone 159
illinois 159
parenthood 158
hundreds 158
jindal 158
los 158
oil 158
keystone 158
career 158
drug 157
indiana 157
large 157
historic 156
dec 156
base 155
hope 155
points 155
justices 155
spend 155
project 155
evening 154
play 154
families 154
jimmy 154
everything 154
travel 153
boost 153
kevin 153
access 153
cast 153
science 153
impact 153
pretty 153
loop 153
remains 153
johnson 153
nothing 153
oversight 152
internet 152
charlotte 152
showing 152
female 152
common 152
join 152
thought 152
aides 151
tells 151
offices 151
always 151
offered 151
fiorina 151
announces 151
caucus 151
guns 151
growth 151
rsb 151
views 151
paris 151
holds 150
hear 150
ll 150
worst 150
exchange 150
wrote 149
partisan 149
single 149
word 149
break 149
critical 149
fellow 149
caucuses 148
provide 148
steps 148
putin 148
mo 148
advocates 148
mary 148
moving 148
proposals 147
results 147
edition 147
forward 147
account 147
though 147
bills 147
rice 146
sought 146
minimum 146
##yearold 146
gives 146
forces 146
deadline 145
yes 145
treasury 145
allegations 145
named 145
gas 145
commerce 145
course 145
quarter 144
challenger 144
issued 144
reach 144
unions 144
rivals 143
hes 143
trumps 143
low 143
deliver 143
returns 143
side 143
finally 143
endorsement 143
cash 142
short 142
higher 142
appeared 142
nc 142
ebola 142
block 142
tampa 142
choice 141
test 141
kasich 141
hands 141
opponent 141
wait 141
rates 141
performance 140
newly 140
opening 140
filed 140
student 140
poor 139
supporting 139
ed 139
students 139
income 139
army 139
workforce 138
dcalif 138
allies 138
asking 138
telling 138
son 138
authority 138
ann 138
familiar 138
area 138
funds 138
enforcement 137
worth 137
remain 137
reached 137
kind 137
rival 137
documents 137
angeles 137
stewart 137
serve 137
raises 137
roberts 137
started 137
longtime 137
discuss 137
gallup 137
dan 137
charlie 137
details 136
cases 136
rising 136
storm 136
thinks 136
island 136
opponents 136
feb 136
carly 135
ceremony 135
status 135
cycle 135
residents 135
officers 135
deep 135
defends 135
ca 135
effect 135
waiting 135
technology 134
fair 134
husband 134
moves 134
companies 134
reagan 134
transportation 134
criminal 134
inside 134
cia 134
blame 134
helping 134
favorite 134
club 134
approved 134
dick 134
inspector 134
pope 134
readthis 133
peace 133
appears 133
cory 133
due 133
bank 133
served 133
alabama 133
capital 133
headquarters 133
bobby 132
massive 132
terrorist 132
presidents 132
tried 131
decide 131
cover 131
victims 131
comment 131
losing 131
reporter 131
continued 131
analysis 131
credit 130
southern 130
coalition 130
fbi 129
evidence 129
flag 129
struck 129
starting 129
pew 129
decade 129
electoral 129
caught 128
probe 128
save 128
considering 128
hiring 128
payroll 128
launches 128
opportunity 128
pawlenty 128
bureau 128
able 128
rwis 127
africa 127
significant 127
pushing 127
welcome 127
jackson 127
forum 127
expand 127
appearance 127
development 126
holiday 126
frank 126
protect 126
st 126
fresh 126
mean 126
criticized 126
road 126
wanted 126
mail 125
october 125
hospital 125
certain 125
compromise 125
memorial 124
repeal 124
beginning 124
guest 124
spoke 124
veteran 124
finance 124
strike 124
reduce 124
church 124
nominees 124
ruled 124
peter 124
ongoing 124
inbox 124
issa 124
interest 124
received 124
abc 124
lines 124
cant 123
didnt 123
brian 123
pipeline 123
child 123
kennedy 123
moments 123
space 123
focused 123
bus 123
terms 123
february 123
published 123
extend 122
photos 122
resign 122
joined 122
confirmation 122
housing 122
themselves 122
camp 122
becoming 122
targeting 122
giffords 122
resolution 122
runoff 122
resignation 121
challenges 121
version 121
light 121
fighting 121
based 121
attempt 121
hawaii 121
domestic 121
trillion 121
couple 120
turns 120
figure 120
airport 120
someone 120
measures 120
citizenship 120
haley 120
friends 120
easy 120
surveillance 120
opinion 120
terrorism 120
addresses 120
deputy 120
progress 120
lives 119
denver 119
seats 119
dakota 119
age 119
nine 119
joint 119
needed 118
colleague 118
operation 118
grand 118
wendy 118
begins 118
round 118
assault 118
agree 118
protest 118
replace 118
rest 118
initiative 118
advance 118
critics 118
chair 117
hand 117
thanks 117
costs 117
businessman 117
prominent 117
showed 117
muslim 117
jeff 117
matt 117
announcing 117
red 116
limits 116
spokesman 116
rather 116
person 116
al 116
mccarthy 116
maybe 116
seemed 116
rnc 116
playing 116
upcoming 116
radio 116
share 116
december 116
beyond 115
agents 115
heritage 115
planning 115
average 115
instead 115
charts 115
holding 115
applewhiteap 115
lawsuit 114
heading 114
heads 114
treatment 114
approval 114
matters 114
advisers 114
hispanic 114
piece 114
changed 114
booker 114
formally 113
citizens 113
manchester 113
filibuster 113
check 113
nebraska 113
tries 113
build 113
actions 113
suggested 112
fourth 112
favor 112
image 112
reasons 112
european 112
largely 112
gubernatorial 112
google 112
dozen 111
sometimes 111
leads 111
fired 111
protests 111
moved 111
incumbent 111
billionaire 111
thomas 111
names 111
launching 111
posted 111
award 111
miami 111
involved 111
ending 111
lose 110
magazine 110
suggests 110
relationship 110
p 110
designed 110
countries 110
daughter 110
shift 110
oregon 110
exit 110
defeat 110
warned 110
politician 109
safety 109
xl 109
###th 109
water 109
honor 108
wealthy 108
bin 108
powerful 108
father 108
arguing 108
include 108
attend 108
sanford 108
activist 108
b 108
combat 108
medicaid 108
buy 108
either 108
nsa 108
f 108
warning 108
loss 107
rariz 107
prevent 107
de 107
delay 107
eye 107
gary 107
prison 107
hoping 107
oppose 107
lack 107
cpac 107
representatives 106
closing 106
leaves 106
send 106
surprise 106
carney 106
wis 106
supercommittee 106
offers 106
lawmaker 106
edward 106
thinking 106
conversation 106
declared 105
setting 105
answers 105
package 105
created 105
gathering 105
oklahoma 105
h 105
charged 105
exactly 105
pacs 104
backs 104
professor 104
spot 104
momentum 104
hopefuls 104
worker 104
continuing 104
allowed 104
cochran 104
establishment 104
closer 104
rich 103
corps 103
land 103
thats 103
library 103
racial 103
gone 103
colleagues 103
v 103
colo 103
reading 103
killing 103
winners 103
competitive 103
appear 103
heard 103
snowden 103
trust 103
further 103
avert 102
audience 102
minutes 102
argument 102
negative 102
page 102
journal 102
manager 102
chances 102
defended 102
miss 102
itself 102
risk 102
ended 101
furloughs 101
allowing 101
perhaps 101
anything 101
create 101
nj 101
reuters 101
difficult 101
brothers 101
maine 101
watching 101
divided 101
passes 101
closed 101
books 100
farm 100
interesting 100
huge 100
sides 100
lawyer 100
campaigning 100
target 100
winner 100
stands 100
situation 99
parents 99
sweeping 99
introduced 99
rare 99
expect 99
####s 99
transcript 99
tweet 99
constitution 99
previous 99
meets 99
faced 99
kids 98
l 98
urging 98
agreed 98
sex 98
brief 98
id 98
region 98
urged 98
unveiled 98
hotel 98
mccaskill 98
endorsed 98
struggling 98
acting 98
phoenix 98
cities 98
dny 97
level 97
jerry 97
faith 97
advantage 97
speculation 97
pledge 97
organizations 97
reason 97
ideas 97
handling 97
receive 97
living 97
speeches 97
gops 97
lots 96
daniel 96
mother 96
hurt 96
armed 96
lower 96
grimes 96
embattled 96
constitutional 96
explain 96
ties 96
operations 96
blog 96
highest 95
broke 95
else 95
feds 95
claire 95
form 95
weapons 95
comprehensive 95
guide 95
coast 95
embassy 95
executives 95
tweets 95
awards 94
chip 94
e 94
lincoln 94
rob 94
politically 94
netanyahu 94
prices 94
follow 94
korea 94
spotlight 94
israeli 94
courts 94
battleground 94
apparently 94
happened 94
supports 94
cuba 94
approve 94
worse 94
reality 94
bringing 93
baltimore 93
detroit 93
ernst 93
retiring 93
jonathan 93
anyone 93
broad 93
potentially 93
sequestration 93
drop 92
businesses 92
contract 92
patrick 92
epa 92
dmass 92
putting 92
heat 92
weather 92
worked 92
arguments 92
knows 92
schumer 92
split 91
bruce 91
turning 91
visits 91
im 91
undocumented 91
considered 91
kelly 91
laden 91
rsc 91
map 91
above 91
cause 90
picture 90
donations 90
explained 90
influence 90
keeping 90
highway 90
lee 90
francisco 90
tank 90
mission 90
pa 90
beach 90
car 90
freeze 90
wars 90
mind 90
lobbying 90
main 90
charleston 90
emergency 89
guy 89
longterm 89
green 89
cleveland 89
jury 89
newtown 89
jesse 89
possibility 89
unlikely 89
feel 89
tuesda 89
below 89
backing 89
quite 89
note 89
trouble 89
civilian 88
aggressive 88
washingto 88
discussion 88
learned 88
relief 88
alleged 88
scrutiny 88
standing 88
restrictions 88
checks 88
moderate 88
la 88
defend 88
require 88
allen 88
happy 88
straw 88
muslims 88
plane 88
thad 88
endorses 88
gsa 88
sanctions 88
mostly 87
traffic 87
door 87
scene 87
liberals 87
targets 87
recess 87
increasing 87
trial 87
friend 87
resigned 87
francis 87
pitch 87
chinese 87
dropped 87
result 87
saw 87
contenders 87
redistricting 86
pauls 86
ken 86
joshua 86
justin 86
decisions 86
promise 86
suggesting 86
vacation 86
melina 86
agriculture 86
affect 86
extension 86
schools 86
seem 86
failure 86
knew 86
communications 86
market 86
retire 86
rcalif 86
dallas 86
writing 86
brother 86
nikki 85
ronald 85
yea 85
source 85
passage 85
attacking 85
sales 85
written 85
search 85
paying 85
looked 85
legislature 85
rock 85
donor 85
played 85
contender 85
forget 85
recovery 84
period 84
sense 84
gates 84
cbs 84
arrives 84
nonprofit 84
headline 84
presiden 84
publicly 84
true 84
heart 84
especially 84
plenty 84
loan 84
edwards 84
forced 84
columbia 84
corporate 83
confederate 83
rhetoric 83
vladimir 83
nationwide 83
sebelius 83
un 83
greater 83
marathon 83
asks 83
write 83
edge 83
kill 83
fewer 82
places 82
serving 82
christian 82
contractors 82
latino 82
article 82
works 82
christmas 82
golf 82
involving 82
promises 82
lerner 82
simple 82
savings 82
philadelphia 82
europe 82
benefit 82
ratings 82
carter 82
comedy 81
sending 81
station 81
bridge 81
bain 81
shootings 81
g 81
includes 81
wonggetty 81
meetings 81
veto 81
conflict 81
crucial 81
appeals 81
ran 81
dnc 80
conn 80
fraud 80
turnout 80
author 80
tenure 80
ability 80
retired 80
passing 80
diplomatic 80
barbara 80
refugees 80
getty 80
jack 80
delays 80
body 80
success 79
wave 79
puts 79
advocacy 79
football 79
wilson 79
available 79
date 79
delivers 79
memoir 79
western 79
folks 79
prepared 79
although 79
religion 79
lois 79
joins 79
sharp 79
fine 79
usa 79
contributions 79
crossroads 78
ceo 78
similar 78
previously 78
strategist 78
positive 78
legacy 78
marks 78
pair 78
outgoing 78
hearings 78
column 78
culture 78
request 78
london 78
automatic 78
hot 78
increased 78
amount 78
disclosure 78
beat 78
guard 78
deadly 77
arrested 77
showdown 77
gabrielle 77
damage 77
birth 77
nixon 77
fun 77
martinez 77
rva 77
assistant 77
ivt 77
terry 77
accusing 77
highlights 77
navy 77
charge 77
promote 77
rtexas 77
whip 77
levels 77
darrell 77
bay 77
unusual 77
c 77
socalled 76
priebus 76
staffer 76
alison 76
positions 76
joke 76
posts 76
fear 76
responsible 76
doubt 76
discrimination 76
drew 76
opm 76
cancer 76
staffers 76
arrived 76
default 76
ends 76
regulations 76
whats 76
cuomo 76
guilty 76
sports 76
goal 76
explains 76
declined 76
abuse 76
straight 76
eastern 76
somodevillagetty 76
regarding 76
gathered 76
shut 76
highprofile 76
particularly 76
illegally 76
pot 75
ordered 75
tennessee 75
lundergan 75
dozens 75
voice 75
fort 75
authorities 75
improve 75
changing 75
aim 75
northern 75
subject 75
training 75
walsh 75
governments 75
song 75
wee 74
threats 74
preparing 74
districts 74
breaking 74
penalty 74
stamp 74
returning 74
reporting 74
add 74
signature 74
gather 74
repeatedly 74
surge 74
vision 73
runs 73
tone 73
overseas 73
missing 73
blue 73
keeps 73
remember 73
famous 73
described 73
scientist 73
ky 73
mandate 73
md 73
benjamin 73
k 73
missed 73
usually 73
british 73
marathe 73
related 73
osama 73
addressed 73
connecticut 73
healthcaregov 73
harrerbloomberg 73
widely 73
sharply 72
census 72
deeply 72
items 72
sees 72
fed 72
population 72
decline 72
walk 72
sam 72
odds 72
jason 72
reduction 72
stars 71
hour 71
perrys 71
wing 71
believes 71
values 71
medal 71
shown 71
prepare 71
billions 71
crime 71
poised 71
strongly 71
spring 71
total 71
contentious 71
picked 71
eyes 71
fans 71
approach 71
suggest 71
rose 71
prospects 71
partnership 71
nominating 71
aaron 71
taxpayers 71
roll 70
troubled 70
greg 70
additional 70
heavily 70
citing 70
kept 70
fundraisers 70
reforms 70
electorate 70
ny 70
ballots 70
strikes 70
sector 70
iranian 70
catholic 70
slow 70
movie 70
lynch 70
clean 70
bar 70
mental 70
widespread 70
karen 70
quick 70
valley 70
inaugural 70
ones 70
tech 69
seriously 69
investment 69
testify 69
employment 69
disaster 69
figures 69
mayoral 69
trayvon 69
fallon 69
provides 69
price 69
truth 69
modern 69
complete 69
plant 69
schedule 69
gender 69
starts 69
background 69
offering 69
interior 69
vermont 68
marking 68
hitting 68
judicial 68
count 68
language 68
fails 68
provided 68
included 68
corruption 68
defending 68
larry 68
fill 68
dispute 68
nelson 68
ticket 68
guncontrol 68
asia 68
track 68
sets 68
orleans 67
furlough 67
safe 67
vulnerable 67
facilities 67
century 67
milwaukee 67
weekly 67
whole 67
herself 67
girls 67
digital 67
falls 67
tex 67
screen 67
scientists 67
poverty 67
highly 67
losers 67
pete 67
experts 67
smith 67
concerned 67
testimony 67
shinseki 67
deals 67
native 67
whom 67
confidence 66
compared 66
battles 66
tens 66
sitting 66
martha 66
providing 66
ii 66
individual 66
journalists 66
writes 66
kathleen 66
advice 66
willing 66
mate 66
cool 66
talked 66
added 66
william 66
easily 66
era 65
parts 65
iraqi 65
dealing 65
investigating 65
curb 65
demand 65
hw 65
opened 65
concern 65
montana 65
monkey 65
enter 65
begun 65
freshman 65
politico 65
dark 65
responded 65
happen 65
louis 65
train 65
mormon 65
picks 65
increases 65
loans 65
terror 65
assistance 65
stepping 65
leno 65
wide 65
arm 65
arent 64
backed 64
expensive 64
alternative 64
contests 64
cards 64
nominated 64
winter 64
videos 64
cold 64
oval 64
priorities 64
revealed 64
landrieu 64
welfare 64
waves 64
directly 64
mont 64
a# 64
urban 64
busy 64
society 64
tied 64
privacy 64
diversity 64
organizing 64
yesterday 64
collection 64
reaction 64
institution 64
opposed 63
learn 63
thursda 63
delegates 63
payments 63
brendan 63
egypt 63
married 63
brookings 63
hosted 63
joni 63
karl 63
austin 63
coal 63
inequality 63
facility 63
returned 63
investigators 63
certainly 63
alexander 63
diego 63
consumer 63
pressing 63
quinnipiac 63
boss 63
limited 63
endorse 63
finding 63
slightly 63
cage 63
rejected 63
ill 63
surprising 63
sort 63
deaths 63
menendez 63
challenging 63
workplace 62
individuals 62
draws 62
introduce 62
boy 62
dennis 62
platform 62
sue 62
divide 62
marriages 62
fully 62
prosecutors 62
demint 62
example 62
harassment 62
addressing 62
meant 62
promised 62
checker 62
taxpayer 62
stopped 62
dems 62
rating 62
ally 62
delivering 62
volunteers 62
rove 62
#th 62
monda 61
experience 61
heavy 61
standards 61
discussed 61
fell 61
abroad 61
skip 61
stood 61
areas 61
hate 61
mogul 61
square 61
drive 61
sites 61
eve 61
stock 61
campus 61
immediately 61
don 61
kim 61
conducted 61
democracy 61
legislators 61
onto 61
seattle 61
mcdaniel 61
unconstitutional 61
greets 61
entering 60
tracking 60
##year 60
tony 60
delayed 60
hired 60
lunch 60
allegedly 60
ariz 60
headlines 60
entire 60
chat 60
occupy 60
jewish 60
hire 60
signing 60
twice 60
counsel 60
reince 60
urges 60
pursue 60
register 60
standard 60
fifth 60
selling 60
defeated 60
prepares 60
colombia 60
plants 60
lobby 60
unprecedented 60
mich 60
currently 60
entered 60
museum 60
harvard 60
french 60
shortterm 60
joining 60
acknowledged 60
lobbyists 60
founder 59
profile 59
laid 59
competition 59
warming 59
balance 59
daughters 59
sworn 59
confirms 59
succeed 59
mcdonnell 59
popularity 59
dog 59
emerged 59
deportation 59
firing 59
joseph 59
gifts 59
offensive 59
france 59
argued 59
relatively 59
fan 59
dnj 58
unveil 58
letters 58
isis 58
arena 58
miles 58
furious 58
cuccinelli 58
store 58
accept 58
secure 58
patent 58
adding 58
required 58
stance 58
daniels 58
legalization 58
van 58
bans 58
dominated 58
mcauliffe 58
hollywood 58
roughly 58
creating 58
ames 58
title 58
computer 58
importance 58
lake 58
art 58
music 57
listens 57
debbie 57
wyoming 57
failing 57
drugs 57
estate 57
presumptive 57
nice 57
wednesda 57
looming 57
midterms 57
respond 57
sens 57
firms 57
pension 57
pushed 57
consequences 57
mcnameegetty 57
supporter 57
judiciary 57
options 57
targeted 57
representative 57
eager 57
expressed 57
commissioner 57
protections 57
item 57
film 57
orders 57
openly 57
visited 57
airwaves 57
ranks 57
nigh 57
sat 57
walks 57
circuit 57
draw 57
mornin 57
dangerous 57
manchin 57
reminder 57
double 57
choices 57
watched 56
renewed 56
americas 56
carolyn 56
complaints 56
task 56
turkey 56
range 56
miller 56
closely 56
judges 56
atlanta 56
delivery 56
grow 56
margin 56
throughout 56
teachers 56
theres 56
basketball 56
progressive 56
counties 56
advertising 56
appeal 56
doctors 56
supposed 56
releases 56
cnbc 56
upon 56
lowest 56
inauguration 56
plays 56
becomes 56
sources 56
downtown 56
loves 56
emanuel 56
text 56
table 56
rga 55
administrator 55
league 55
abortions 55
disability 55
extended 55
delegation 55
direction 55
quote 55
likes 55
bet 55
morale 55
blocked 55
worried 55
enrollment 55
card 55
comeback 55
dream 55
ray 55
aims 55
lugar 55
bushs 55
o 55
aside 55
consideration 55
charity 55
rejects 55
markey 55
provision 55
worry 55
ranking 55
cutting 55
blow 55
practice 55
rush 54
caused 54
handful 54
requiring 54
guests 54
dramatic 54
equal 54
flight 54
effective 54
silver 54
garden 54
axelrod 54
temporary 54
adelson 54
facts 54
initiatives 54
understand 54
per 54
conduct 54
specific 54
core 54
present 54
formal 54
bombing 54
prove 54
shop 54
games 54
outcome 54
communities 54
kimmel 54
bowl 54
defund 54
centers 54
rla 54
portman 54
testifies 54
warns 54
thank 54
sean 54
channel 54
newark 54
drama 54
solar 54
violent 54
determine 54
pulled 53
terrorists 53
immigrant 53
indicted 53
blasio 53
cup 53
slams 53
jokes 53
predicted 53
whistleblowers 53
dhs 53
featuring 53
fights 53
puerto 53
arab 53
striking 53
backlog 53
landmark 53
rubios 53
protecting 53
expectations 53
bergdahl 53
readers 53
parks 53
mix 53
aftermath 53
alan 53
cleared 53
highlight 53
manufacturing 53
alone 53
threatens 53
select 53
influential 53
afghan 53
sponsored 53
lawyers 53
harder 53
noted 53
built 53
sullivan 53
tie 53
option 53
rape 53
sell 52
sheldon 52
houston 52
tsa 52
losses 52
schultz 52
stat 52
editor 52
absolutely 52
reaches 52
knowledge 52
direct 52
orlando 52
photothe 52
libertarian 52
skeptical 52
prize 52
madison 52
construction 52
subsidies 52
finish 52
heated 52
salary 52
guantanamo 52
praise 52
visitors 52
angry 52
tight 52
drawing 52
checking 52
transparency 52
regular 52
player 52
convicted 52
phase 52
emerging 52
thoughts 52
coburn 52
wilsongetty 52
percentage 52
differences 52
separate 52
intense 52
obam 51
perfect 51
interests 51
audit 51
refugee 51
senatorial 51
taliban 51
questioned 51
tweeted 51
gain 51
liberty 51
memo 51
express 51
weighs 51
gains 51
listen 51
affair 51
accuses 51
expansion 51
grassley 51
corporations 51
practices 51
carry 51
stepped 51
easier 51
threatened 51
convince 51
feinstein 51
hell 51
chelsea 51
simply 51
match 51
dept 51
accounts 51
style 51
contractor 51
pages 51
mistake 51
emotional 51
elementary 51
sullivangetty 51
earned 51
overall 51
mention 51
homes 51
presence 51
uncle 51
birthday 51
multiple 51
touts 50
newspaper 50
pull 50
gays 50
identity 50
born 50
aired 50
kaine 50
barbour 50
shortly 50
latinos 50
grounds 50
studies 50
detailed 50
immediate 50
sea 50
clearly 50
resigns 50
cotton 50
auto 50
picking 50
investigations 50
riowa 50
effectively 50
ten 50
incident 50
featured 50
suffered 50
declare 50
helps 50
preview 50
activities 50
grimm 50
brings 50
petraeus 50
statements 50
surprised 50
marked 50
terrible 50
girl 50
surrounding 50
kicked 50
allows 50
various 50
placed 49
drawn 49
competing 49
amazing 49
managers 49
rpa 49
machine 49
victories 49
mexican 49
propose 49
threatening 49
lew 49
rollout 49
zimmerman 49
idaho 49
creation 49
accountability 49
kick 49
dmd 49
msnbc 49
lt 49
brennan 49
ideological 49
improving 49
licenses 49
rhode 49
beating 49
goals 49
steven 49
snow 49
investigate 49
extending 49
columbus 49
cato 49
restore 49
mcdonald 49
powers 49
midnight 49
questioning 49
restaurant 49
thompson 48
panetta 48
nra 48
josh 48
extra 48
pictures 48
silence 48
interviews 48
rifle 48
focusing 48
code 48
committees 48
rural 48
breakfast 48
wasserman 48
murray 48
messages 48
legalize 48
pointed 48
none 48
contempt 48
beer 48
reveals 48
model 48
pacific 48
lessons 48
suit 48
handle 48
vp 48
celebrate 48
struggle 48
difference 48
math 48
murder 48
environment 48
ala 48
clash 48
committed 48
liz 48
registered 48
upset 48
loretta 48
sound 48
giant 48
seth 48
nominate 48
telework 48
trio 48
opposes 47
episodes 47
complicated 47
phil 47
baby 47
politic 47
frida 47
recession 47
uses 47
basic 47
hous 47
hatch 47
disclose 47
debtlimit 47
pushes 47
kicks 47
nev 47
struggles 47
supported 47
except 47
memorable 47
eliminate 47
outrage 47
considers 47
topic 47
traveling 47
christies 47
fema 47
rapidly 47
partial 47
professional 47
toda 47
statistics 47
jones 47
canadian 47
removed 47
legalizing 47
stops 47
freshmen 47
originally 46
trey 46
false 46
hispanics 46
attacked 46
airing 46
gallery 46
necessary 46
uncertainty 46
u 46
correspondents 46
hair 46
owners 46
responds 46
regional 46
fail 46
demands 46
walked 46
interested 46
rarely 46
embrace 46
drops 46
releasing 46
vows 46
ford 46
weigh 46
violated 46
nasa 46
patients 46
weighing 46
loses 46
rminn 46
oped 46
commercial 46
crowded 46
networks 46
legally 46
ambitious 46
plea 46
pryor 46
lay 46
marine 46
parade 46
reportedly 46
pollster 46
waters 46
unless 46
players 46
casting 46
rahm 46
suddenly 46
timothy 45
shared 45
assembly 45
unpopular 45
unexpected 45
santorums 45
trend 45
tensions 45
breach 45
actor 45
apparent 45
exchanges 45
negotiators 45
advocate 45
felt 45
rmass 45
receiving 45
afp 45
proposing 45
bonuses 45
collective 45
katherine 45
commencement 45
strip 45
brewer 45
duty 45
dramatically 45
sit 45
castro 45
projects 45
stake 45
filing 45
active 45
somewhat 45
olympics 45
emissions 45
visiting 45
baseball 45
generation 45
ark 45
behavior 45
expanded 44
diverse 44
broader 44
resources 44
documentary 44
prayer 44
appointed 44
debat 44
successful 44
crist 44
classified 44
chemical 44
spitzer 44
feature 44
invited 44
warner 44
covering 44
property 44
retreat 44
division 44
kay 44
wealth 44
broadcast 44
blunt 44
rmo 44
stretch 44
virtually 44
feud 44
marry 44
shouldnt 44
borrowing 44
doctor 44
tribute 44
youth 44
driving 44
rogers 44
sessions 44
choose 44
kirk 43
norquist 43
snyder 43
germany 43
pledged 43
suspect 43
gen 43
hagan 43
lets 43
traveled 43
hosts 43
republic 43
wondering 43
mayors 43
temporarily 43
da 43
antiabortion 43
document 43
airstrikes 43
evan 43
nunn 43
ga 43
fuel 43
ish 43
tucson 43
broken 43
greatest 43
ice 43
bigger 43
condoleezza 43
prompted 43
diary 43
portrait 43
quiz 43
mine 43
elect 43
jeffrey 43
dollar 43
regulation 43
rallies 43
sally 43
urge 43
usda 43
stamps 43
poses 43
williams 43
sale 43
campaig 43
opposing 43
stronger 43
arrest 43
india 43
oliver 43
authorization 43
sensitive 43
reelected 43
treat 43
canada 43
die 43
normal 43
gore 43
resolve 43
georgetown 43
claimed 43
claiming 43
incumbents 43
whos 43
wild 43
significantly 43
gap 43
followed 42
bombings 42
reserve 42
pool 42
smart 42
teams 42
n 42
breaks 42
gulf 42
fallen 42
meaning 42
organized 42
lamar 42
reducing 42
millennials 42
determined 42
commitment 42
grover 42
crimes 42
anger 42
bias 42
buzz 42
solution 42
anchor 42
insider 42
contracts 42
revelations 42
hud 42
taylor 42
license 42
participate 42
saul 42
argue 42
funded 42
remark 42
strategists 42
pablo 42
backers 42
vast 42
referendum 42
dropping 42
schock 42
strategic 42
pence 42
vowed 42
falling 42
criticizing 42
misconduct 42
victim 42
theyre 42
involvement 42
staying 42
mom 42
server 42
darren 42
brand 42
mcallister 42
dave 41
clock 41
challengers 41
newest 41
instagram 41
feels 41
amounts 41
display 41
trading 41
dean 41
flying 41
infrastructure 41
yard 41
admitted 41
tragedy 41
gps 41
traditional 41
entitlement 41
gridlock 41
representing 41
sends 41
boehners 41
expanding 41
window 41
speed 41
focuses 41
congres 41
buildings 41
balce 41
agai 41
tests 41
complex 41
activity 41
unanimously 41
shakes 41
cable 41
casino 41
regulatory 41
sits 41
mandel 41
unrest 41
watchers 41
band 41
commander 41
hospitals 41
kan 41
hoyer 41
partners 41
gray 41
distance 41
antonio 41
teenager 41
patrol 41
philip 41
frustrated 41
draft 41
salt 41
mounting 41
objections 41
gardner 41
produced 41
wounded 41
cybersecurity 41
upper 41
youtube 41
minds 41
voices 41
marc 41
boulder 41
identified 41
define 41
iow 41
rac 41
remarkable 41
prosperity 41
hack 41
covered 41
effects 40
stuff 40
dharapakap 40
outreach 40
hires 40
sheriff 40
tobacco 40
earn 40
examine 40
viewers 40
detail 40
quiet 40
flat 40
chose 40
wind 40
opens 40
usmexico 40
middleclass 40
dr 40
tradition 40
neil 40
retirees 40
olympic 40
represent 40
saudi 40
hurdle 40
slight 40
demanding 40
usual 40
natural 40
longstanding 40
presented 40
browser 40
militants 40
completely 40
debtceiling 40
speakers 40
conferences 40
rmich 40
lesson 40
appearing 40
promoting 40
discussing 40
accepted 40
files 40
dmich 40
alive 40
gingrichs 40
scandals 40
barely 40
rokla 40
humor 40
suicide 40
kasterap 40
everybody 40
gotten 40
mixed 40
younger 40
britain 40
crash 40
overtime 40
engaged 39
ryans 39
harbor 39
thanksgiving 39
congresswoman 39
gaffe 39
forcing 39
rebels 39
ensure 39
fallout 39
debating 39
massacre 39
behalf 39
buying 39
original 39
section 39
sparked 39
acceptance 39
wearing 39
boeing 39
solyndra 39
spread 39
balanced 39
takeaways 39
generally 39
latenight 39
describe 39
neither 39
laura 39
leaked 39
explaining 39
gift 39
equality 39
incoming 39
everywhere 39
beliefs 39
drone 39
personally 39
oral 39
standoff 39
archives 39
unarmed 39
basically 39
customers 39
tactics 39
t 39
acrosstheboard 39
rill 39
notice 39
blasts 39
neighborhood 39
spying 39
scheduling 39
catch 39
stimulus 39
doesnot 39
rico 38
doubts 38
saving 38
opposite 38
causes 38
nears 38
bump 38
blocking 38
produce 38
suspected 38
intervention 38
pledges 38
streets 38
phrase 38
systems 38
grew 38
contraception 38
grant 38
x 38
resume 38
shape 38
disease 38
banning 38
sun 38
larger 38
ag 38
sister 38
entirely 38
reflects 38
declaring 38
charitable 38
dea 38
fec 38
lgbt 38
auditors 38
lawn 38
lobbyist 38
viral 38
cameron 38
max 38
confirm 38
dva 38
boys 38
proud 38
plus 38
cyber 38
roundtable 38
mount 38
ross 38
eligible 38
impasse 38
defeating 38
recreational 38
hike 38
sentenced 38
ride 38
mentioned 38
globe 38
soldiers 38
tapped 38
aviation 38
bold 38
praises 38
agent 38
hoped 38
yearend 38
jacquelyn 38
permanent 38
confident 38
seemingly 38
dill 38
gestures 37
paper 37
recognition 37
obtained 37
secondterm 37
inquiry 37
earnest 37
pulling 37
ashley 37
jerusalem 37
rapids 37
evangelical 37
nobody 37
row 37
alcohol 37
sold 37
wisdom 37
prospect 37
funny 37
surprisingly 37
deficitreduction 37
indictment 37
webb 37
size 37
developing 37
gaining 37
clears 37
context 37
fate 37
net 37
olsongetty 37
lone 37
god 37
ginsburg 37
theory 37
oh 37
institutions 37
rulings 37
deportations 37
journalist 37
quit 37
older 37
walshap 37
hickenlooper 37
amendments 37
remove 37
obvious 37
dharapak 37
badly 37
cultural 37
berry 37
smaller 37
swift 37
leon 37
ambitions 37
enters 37
rolling 37
rough 37
cameras 37
aggressively 37
lautenberg 37
mobile 37
hosting 37
portion 37
luther 37
landscape 37
attempts 37
threw 37
celebrating 37
tornado 37
pakistan 37
attitudes 37
departure 37
lengthy 37
deny 37
beltway 36
remained 36
intended 36
customs 36
hastert 36
links 36
julian 36
alassad 36
promising 36
robertsbloomberg 36
perez 36
chambers 36
refused 36
requirement 36
stunning 36
polarization 36
steyer 36
combined 36
bargaining 36
subcommittee 36
affected 36
responding 36
markets 36
honoring 36
jordan 36
missile 36
identify 36
unseat 36
dies 36
answered 36
string 36
womens 36
narrow 36
blood 36
furloughed 36
duck 36
racist 36
debated 36
academy 36
filner 36
gold 36
chosen 36
korean 36
autoplay 36
cedar 36
rocky 36
vets 36
rny 36
baghdad 36
remaining 36
decides 36
sounds 36
revive 36
nashville 36
julia 36
criticizes 36
pop 36
hasnt 36
firearms 36
bashar 36
prediction 36
mall 36
shaheen 36
monthly 36
odd 36
indian 36
optimistic 36
nationally 36
attending 36
stakes 36
moderator 36
signaled 36
rangel 36
favorable 36
ruth 36
gear 36
eliot 36
injured 36
telephone 36
captured 36
branch 36
registration 36
feeling 35
begich 35
aboard 35
keynote 35
jose 35
implications 35
budgets 35
houses 35
electio 35
manhattan 35
reaching 35
tiny 35
fighters 35
okay 35
statewide 35
wonder 35
longshot 35
kitzhaber 35
grassroots 35
portland 35
expert 35
weighed 35
proposes 35
stuck 35
faster 35
vietnam 35
lisa 35
shore 35
soccer 35
priority 35
linked 35
error 35
theme 35
possibly 35
blocks 35
owner 35
gained 35
recognize 35
reception 35
halt 35
vilsack 35
photocharlie 35
timeline 35
signal 35
seeing 35
overwhelming 35
rescue 35
prince 35
administrations 35
jail 35
independents 35
angus 35
wish 35
hardly 35
andrews 35
taxexempt 35
letterman 35
adam 35
packed 35
vitter 35
boxer 35
consulting 35
stevens 35
canceled 35
conditions 35
appearances 35
asian 35
fears 35
perdue 35
naacp 35
giuliani 35
repeated 35
weak 35
federation 35
farmers 35
feet 35
rmiss 35
bitter 35
dingell 35
delegate 35
refusing 35
rudy 35
danger 35
quality 35
baucus 35
treated 35
aircraft 35
serves 35
sink 35
rutah 35
otherwise 35
howard 35
faa 35
reflect 35
radical 35
divisive 35
transgender 34
trips 34
prior 34
kaster 34
fixs 34
dogs 34
discussions 34
bevin 34
inspired 34
smoking 34
praised 34
tucker 34
charm 34
schatz 34
nato 34
constitutionality 34
concluded 34
governing 34
backlash 34
imagine 34
santa 34
aka 34
drones 34
strength 34
observers 34
spouses 34
calendar 34
gang 34
dem 34
bunch 34
estimated 34
######## 34
fake 34
consultant 34
homeless 34
enemy 34
timing 34
forms 34
wolf 34
pivotal 34
minorities 34
strange 34
kid 34
mandela 34
whistleblower 34
insisted 34
unpaid 34
televised 34
debut 34
concord 34
reopen 34
columnist 34
waste 34
photographed 34
throwing 34
whatever 34
haul 34
stump 34
skills 34
grown 34
resigning 34
endorsing 34
attended 34
negotiate 34
nature 33
durbin 33
recipients 33
dismissed 33
touch 33
diplomacy 33
franklin 33
transition 33
procedural 33
pictured 33
threaten 33
jump 33
jill 33
sorry 33
vineyard 33
bailout 33
brady 33
tale 33
partner 33
powell 33
lieutenant 33
greeted 33
farewell 33
mainstream 33
struggled 33
substance 33
geithner 33
represents 33
petition 33
witness 33
celebration 33
pays 33
fires 33
inevitable 33
##st 33
silent 33
execution 33
udall 33
soldier 33
fees 33
route 33
dmo 33
braley 33
dole 33
titled 33
operating 33
misleading 33
inhofe 33
schedules 33
garner 33
provisions 33
doors 33
pregnancy 33
bernardino 33
longestserving 33
uncertain 33
iframe 33
honors 33
slowly 33
monica 33
attorneys 33
moscow 33
harm 33
gao 33
luis 33
actual 33
roles 33
cartoon 33
actress 33
posed 33
jumped 33
brooklyn 33
consensus 33
nominations 33
scores 33
devoted 33
circle 33
primetime 33
seniors 33
prospective 33
shake 33
sentence 33
predict 33
dominate 33
whites 33
harkin 33
please 33
vehicles 33
populist 33
bear 33
awarded 33
analysts 33
moms 33
spokeswoman 33
ukrainian 33
cambridge 33
et 33
monsivaisap 32
singer 32
jewell 32
photoj 32
watcher 32
stalled 32
conventional 32
sick 32
testing 32
confrontation 32
filled 32
zero 32
tillis 32
modest 32
reductions 32
granted 32
mood 32
users 32
departments 32
agrees 32
reveal 32
lamarquereuters 32
luncheon 32
blames 32
anonymous 32
anymore 32
processing 32
seconds 32
excited 32
enterprise 32
pleased 32
prostitution 32
closure 32
brain 32
sioux 32
slate 32
prosecutor 32
collecting 32
impeachment 32
nasty 32
honored 32
podium 32
banks 32
hackers 32
collected 32
frequently 32
glenn 32
features 32
walkers 32
ore 32
topics 32
employers 32
responsibility 32
patient 32
iii 32
overwhelmingly 32
rank 32
provocative 32
issuing 32
coach 32
minor 32
okeefe 32
latin 32
patriot 32
hero 32
kickoff 32
contracting 32
nowhere 32
photocharles 32
highstakes 32
predicts 32
photographer 32
secretaries 32
flights 32
dianne 32
shopping 32
harsh 32
martinap 32
expressing 32
rebuke 32
beau 32
journalism 32
henry 32
narrowly 32
acts 32
cornyn 32
legislatures 31
civilians 31
roots 31
columns 31
crack 31
rtenn 31
shares 31
tomorrow 31
favored 31
pact 31
pace 31
historically 31
goodbye 31
northeast 31
dmont 31
box 31
enthusiasm 31
mcdonough 31
mystery 31
radel 31
counterterrorism 31
independence 31
pledging 31
colin 31
discusses 31
greenville 31
explore 31
woes 31
carbon 31
lift 31
unique 31
looms 31
contrast 31
location 31
engage 31
usps 31
offic 31
vicepresidential 31
zone 31
cole 31
adults 31
requires 31
counts 31
collect 31
romne 31
guys 31
conspiracy 31
mothers 31
penn 31
essentially 31
tool 31
shifts 31
unity 31
lastminute 31
respect 31
diplomat 31
steady 31
writer 31
unable 31
warn 31
verge 31
comedian 31
awkward 31
reverse 31
chatter 31
slammed 31
consistent 31
assessment 31
pol 31
prescription 31
firefighters 31
holidays 31
seized 31
vance 31
hunting 31
barney 31
onetime 31
desk 31
photocarolyn 31
doug 31
premiums 31
arrive 31
correct 31
flags 31
clinic 31
earth 31
rounds 31
dccc 31
trafficking 31
ignore 31
golden 30
dirty 30
arlington 30
atlantic 30
lowincome 30
liberties 30
wrongdoing 30
amy 30
shrinking 30
stark 30
reject 30
neibergall 30
pack 30
camera 30
christopher 30
rkan 30
quinn 30
murphy 30
ellen 30
approaches 30
denis 30
dynasty 30
researchers 30
trademark 30
champion 30
touting 30
causing 30
drought 30
believed 30
sight 30
partys 30
established 30
endorsements 30
critique 30
huma 30
twoyear 30
abedin 30
sharing 30
hook 30
nashua 30
jo 30
organizers 30
courthouse 30
bolster 30
graphic 30
nfl 30
desire 30
waits 30
understanding 30
qualify 30
jeh 30
extreme 30
hometown 30
magic 30
rev 30
pose 30
german 30
invasion 30
withdrawal 30
chafee 30
wellknown 30
delaware 30
reader 30
reviews 30
solve 30
clark 30
administrative 30
rallied 30
reputation 30
childhood 30
briefly 30
accident 30
ease 30
stress 30
equity 30
robin 30
visa 30
literally 30
cited 30
screening 30
character 30
initial 30
craig 30
postmaster 30
territory 30
kelley 30
shes 30
bankruptcy 30
memory 30
arrival 30
bowe 30
opportunities 30
dance 30
finances 30
abbott 29
troubles 29
formed 29
skepticism 29
chairwoman 29
aei 29
cruzs 29
coffee 29
wright 29
nor 29
ring 29
horse 29
empty 29
lists 29
stalemate 29
#nd 29
ernstreuters 29
landed 29
extraordinary 29
talent 29
sparks 29
tower 29
egyptian 29
bomb 29
mandatory 29
suffering 29
lays 29
gruber 29
alliance 29
palestinian 29
crimea 29
requests 29
revolution 29
rolls 29
products 29
reacts 29
underdog 29
springs 29
cuban 29
humanitarian 29
photosusan 29
##day 29
lands 29
exploratory 29
settlement 29
drinking 29
carefully 29
demonstrate 29
banner 29
palm 29
shaping 29
outbreak 29
demonstrators 29
mansion 29
pizza 29
scenes 29
gillibrand 29
denies 29
denied 29
complaint 29
closest 29
anticipated 29
unaccompanied 29
experienced 29
reads 29
saturda 29
militant 29
ralph 29
attends 29
volunteer 29
devastating 29
expenses 29
attempted 29
counting 29
ayotte 29
reduced 29
innovation 29
funeral 29
fence 29
disclosed 29
alongside 29
sentences 29
legitimate 29
bidens 29
fly 29
quietly 29
pending 29
accusations 29
prohibit 29
tammy 29
spencer 29
apply 29
bestsellers 29
celebrated 28
reactions 28
theater 28
virus 28
lately 28
production 28
electronic 28
cooperation 28
lahood 28
equipment 28
sixth 28
lived 28
lie 28
tend 28
monitor 28
tuesdays 28
afpgetty 28
however 28
fault 28
tribune 28
tougher 28
crowds 28
shifting 28
harris 28
vowing 28
depends 28
buffett 28
blast 28
dedicated 28
households 28
correction 28
applewhite 28
lacks 28
addition 28
noticed 28
posting 28
unemployed 28
managed 28
borders 28
titles 28
lo 28
mr 28
steny 28
colleen 28
ultimately 28
color 28
pundits 28
influx 28
racism 28
scalia 28
pittsburgh 28
settle 28
blacks 28
accepting 28
technical 28
counter 28
outlined 28
segment 28
cap 28
carl 28
severe 28
throw 28
scheme 28
fierce 28
simpson 28
keith 28
drivers 28
surging 28
wear 28
postelection 28
yorker 28
blaming 28
reviewing 28
england 28
river 28
improved 28
relationships 28
stricter 28
proposition 28
closeddoor 28
laughs 28
okla 28
principles 28
avoiding 28
forecast 28
particular 28
responses 28
janet 28
tighten 28
daley 28
expects 28
jobless 28
nrcc 28
constituents 28
suspend 28
ackerbloomberg 28
disabled 28
declining 28
fit 27
encourage 27
veep 27
bottom 27
minute 27
bader 27
scramble 27
peters 27
historical 27
teacher 27
suspects 27
develop 27
#st 27
wasnt 27
abruptly 27
friendly 27
mel 27
mocks 27
appropriations 27
cloud 27
attempting 27
happens 27
encouraging 27
donation 27
bipartisanship 27
assist 27
nate 27
cautious 27
lottery 27
clip 27
engagement 27
fatal 27
opinions 27
introducing 27
surgery 27
pinocchios 27
defined 27
jesus 27
variety 27
suing 27
davenport 27
redskins 27
heels 27
underway 27
botched 27
describes 27
pink 27
mode 27
mourdock 27
schweitzer 27
ig 27
plot 27
kirsten 27
gross 27
manuel 27
tackle 27
del 27
compare 27
value 27
citizen 27
ma 27
cillizza 27
weird 27
feed 27
jewel 27
orman 27
authorizing 27
resulted 27
monitoring 27
pulls 27
factor 27
histor 27
poster 27
fixing 27
implementation 27
cars 27
xi 27
investors 27
socialist 27
economics 27
leaks 27
hbo 27
mad 27
corner 27
hanabusa 27
greece 27
malaysia 27
healthy 27
adopt 27
tasked 27
hacked 27
sexually 27
specifically 27
roger 27
unveils 27
tours 27
chase 27
carrying 27
existing 27
elite 27
toronto 27
archive 27
consumers 27
egg 27
reiterated 27
exits 27
blitz 27
uninsured 27
brazil 27
univision 27
switch 27
hurting 27
solid 27
fred 27
advances 27
treasurer 27
dana 27
violations 27
hat 26
bridgegate 26
consulate 26
compete 26
recruit 26
exposed 26
sketch 26
smiles 26
survive 26
fiery 26
matchup 26
minneapolis 26
weight 26
russell 26
loebafpgetty 26
campaigned 26
correspondent 26
alert 26
trusted 26
attendees 26
undermine 26
erupted 26
##minute 26
walmart 26
clearance 26
simi 26
entrance 26
deciding 26
slash 26
frozen 26
type 26
gloria 26
participants 26
hates 26
enthusiastic 26
arabia 26
shuttle 26
shots 26
confusion 26
blasted 26
establish 26
dariz 26
ok 26
removal 26
securing 26
enormous 26
silicon 26
louisville 26
hey 26
polarized 26
elsewhere 26
sgt 26
brink 26
kate 26
poultry 26
inspectors 26
letting 26
forest 26
clinto 26
crises 26
declines 26
cheer 26
##s 26
rolled 26
palestinians 26
photojohn 26
findings 26
spanish 26
airlines 26
scientific 26
franken 26
detailing 26
hobby 26
frustration 26
saved 26
carlos 26
legalized 26
recover 26
highlighted 26
urgent 26
connected 26
prisons 26
definitely 26
inappropriate 26
contribution 26
worl 26
notable 26
moderators 26
advanced 26
tip 26
cassidy 26
convinced 26
dump 26
english 26
fatally 26
hanging 25
welcomed 25
cincinnati 25
drilling 25
awaiting 25
connection 25
spar 25
customer 25
greenhouse 25
tsp 25
aurora 25
renew 25
participation 25
product 25
challenged 25
actively 25
pensions 25
mario 25
basis 25
runup 25
happening 25
tout 25
guards 25
huddle 25
busch 25
withdraw 25
easter 25
hangout 25
wedding 25
expense 25
port 25
critic 25
clashed 25
vaccine 25
unknown 25
identification 25
onstage 25
wash 25
copy 25
specter 25
subpoena 25
protester 25
predictions 25
katie 25
improperly 25
indecision 25
clint 25
preventing 25
ball 25
honolulu 25
blamed 25
graduates 25
incidents 25
optimism 25
comey 25
scouts 25
olympia 25
shifted 25
classic 25
pain 25
cancel 25
stations 25
preliminary 25
ireland 25
flake 25
hikes 25
estimates 25
nonpartisan 25
regulate 25
shutting 25
bullet 25
requirements 25
strict 25
embarrassing 25
islam 25
gina 25
conservatism 25
currency 25
orientation 25
suggestions 25
richmond 25
solidarity 25
outlines 25
logo 25
killings 25
enacted 25
wealthiest 25
surrounded 25
signaling 25
uber 25
warm 25
fascinating 25
mccrory 25
jessica 25
jennifer 25
##rd 25
emerge 25
cancels 25
fcc 25
vucciap 25
developed 25
disapprove 25
obtain 25
universe 25
handing 25
wade 25
publishing 25
quest 25
lucky 25
spots 25
toll 25
scored 25
database 25
vehicle 25
efficiency 25
presents 25
arms 25
lesbian 25
themes 25
casts 25
celebrity 25
compensation 25
highlighting 25
scalise 25
threeday 25
exploring 25
marines 25
homosexuality 25
parking 25
csis 25
driven 25
lining 25
sandra 25
longest 25
alqaeda 25
tommy 25
hollen 25
nrsc 24
corker 24
shocking 24
presses 24
preelection 24
contested 24
hong 24
lewis 24
nod 24
partisanship 24
rockefeller 24
celebrates 24
retaliation 24
servants 24
kicking 24
diplomats 24
investments 24
selfie 24
conventions 24
averting 24
engaging 24
impressive 24
sweet 24
successor 24
thom 24
charter 24
financially 24
halls 24
exist 24
clay 24
grace 24
steep 24
smithsonian 24
replacement 24
en 24
anyway 24
inc 24
reference 24
sorts 24
outline 24
purchases 24
wages 24
industries 24
fulltime 24
apart 24
conversations 24
anybody 24
slated 24
cross 24
margaret 24
revenues 24
defensive 24
homelessness 24
curious 24
federally 24
reacted 24
chairs 24
condemned 24
moore 24
proved 24
crossing 24
thirdparty 24
emily 24
comparing 24
theft 24
forthcoming 24
sherrod 24
negotiating 24
fought 24
risks 24
generated 24
resistance 24
abandoned 24
tired 24
senates 24
bust 24
photomark 24
robertson 24
printing 24
blueprint 24
stone 24
brutal 24
approaching 24
signals 24
thin 24
wire 24
orrin 24
circles 24
cartagena 24
ncaa 24
avoided 24
turmoil 24
gala 24
commons 24
moran 24
content 24
recruiting 24
sacramento 24
stopgap 24
decisive 24
desjarlais 24
solis 24
graduation 24
nobel 24
dad 24
loved 24
clearing 24
expire 24
undercard 24
asset 24
anderson 24
nganafpgetty 24
mortgage 24
thrift 24
fancy 24
rid 24
violating 24
branstad 24
sues 24
sentencing 23
spectrum 23
statehouse 23
libyan 23
shadow 23
seize 23
pressed 23
chad 23
lane 23
shortage 23
outlets 23
reasonable 23
slew 23
heller 23
twothirds 23
cheering 23
jolly 23
marketplace 23
crew 23
shakeup 23
ugly 23
clinics 23
jumping 23
frequent 23
photojim 23
label 23
credentials 23
colleges 23
katrina 23
doubled 23
knock 23
clarify 23
fixed 23
regime 23
andy 23
donated 23
managing 23
republicanled 23
belief 23
repealing 23
ensuring 23
disagree 23
jeremy 23
greensboro 23
collapse 23
babies 23
foe 23
afford 23
shuts 23
bundy 23
link 23
operative 23
farreaching 23
deserve 23
hills 23
proceed 23
jam 23
el 23
impossible 23
landslide 23
outsider 23
referred 23
halloween 23
islamist 23
luck 23
outpost 23
suburban 23
megyn 23
setback 23
oops 23
bargain 23
alike 23
buzzfeed 23
cbo 23
southwest 23
strengthen 23
podesta 23
parliament 23
inmate 23
qa 23
lawsuits 23
damaged 23
authorized 23
favors 23
detention 23
knowing 23
japan 23
rallying 23
creative 23
uniform 23
slam 23
informed 23
dscc 23
hardline 23
beijing 23
wouldbe 23
reassure 23
lows 23
battling 23
suspended 23
replaced 23
gaza 23
represented 23
noting 23
solutions 23
closures 23
refusal 23
dla 23
beats 23
marriag 23
ove 23
fame 23
graduate 23
male 23
springsteen 23
pieces 23
viewed 23
salaries 23
handout 23
youre 23
inmates 23
learning 23
raul 23
auditor 23
verdict 23
withdrawing 23
jeanne 23
blogger 23
overhauling 23
overcome 23
handed 23
clerk 23
#in# 23
airline 23
environmentalists 23
strongest 23
remembered 23
proof 23
selection 23
rail 23
lesbians 23
nba 23
milestone 23
unlimited 23
notes 23
usaid 23
broadly 23
yahoo 22
estimate 22
ira 22
extent 22
dhawaii 22
controversies 22
burke 22
indict 22
carriers 22
hang 22
enforce 22
root 22
troop 22
deeper 22
royal 22
peterson 22
sudden 22
chambliss 22
firstever 22
payment 22
selected 22
excellent 22
adopted 22
joked 22
uproar 22
protesting 22
commemorate 22
episode 22
felony 22
applications 22
vacant 22
nurse 22
towns 22
famously 22
meyers 22
jinping 22
accord 22
camps 22
explosion 22
editorial 22
substantial 22
trends 22
click 22
experiment 22
kissinger 22
examining 22
novel 22
extends 22
sunshine 22
projected 22
supply 22
birther 22
walking 22
earning 22
cenetaap 22
writers 22
lasting 22
surveys 22
excessive 22
beleaguered 22
stable 22
gowdy 22
boring 22
stadium 22
reutersjonathan 22
rucker 22
pollution 22
barber 22
survived 22
appointment 22
guess 22
lewinsky 22
oversee 22
slavery 22
wa 22
brad 22
tsarnaev 22
eyeing 22
forever 22
listening 22
escalating 22
stanford 22
describing 22
stem 22
assertion 22
recommendations 22
defunding 22
contained 22
criminals 22
advancing 22
impending 22
drudge 22
gomez 22
print 22
computers 22
inouye 22
prevention 22
exercise 22
privately 22
finished 22
christians 22
restrict 22
stopping 22
reno 22
helicopter 22
ladies 22
resort 22
suspicious 22
material 22
richardson 22
signatures 22
aflcio 22
netflix 22
offense 22
quits 22
proving 22
bond 22
teen 22
toughest 22
angela 22
typical 22
yourself 22
crowley 22
comparison 22
stayed 22
walter 22
cemetery 22
reed 22
fda 22
impression 22
permit 22
maintain 22
bag 22
lied 22
weeklong 22
argues 22
answering 22
aiming 22
abercrombie 22
mountain 22
exists 22
judgment 22
pfeiffer 22
screeners 22
bloc 22
react 22
intends 21
brotherhood 21
dismisses 21
isaac 21
considerable 21
hints 21
victor 21
shannon 21
festival 21
riding 21
indonesia 21
nteu 21
smialowskigetty 21
regardless 21
boycott 21
criticize 21
watchdogs 21
manage 21
entertainment 21
submitted 21
tenn 21
anchorage 21
burundi 21
vacated 21
landing 21
analyst 21
rachel 21
declares 21
sights 21
founded 21
backer 21
dayton 21
toledo 21
presenting 21
regularly 21
tense 21
stores 21
touted 21
guidelines 21
spike 21
pork 21
raleigh 21
icon 21
somebody 21
electric 21
lying 21
thus 21
neibergallap 21
carried 21
conclusion 21
victoria 21
preserve 21
involve 21
stephanie 21
occurred 21
spill 21
rein 21
hottest 21
command 21
dcolo 21
owenap 21
greet 21
somewhere 21
recovering 21
physical 21
productive 21
eu 21
abraham 21
freddie 21
snyderreuters 21
shuttered 21
lieberman 21
evolution 21
essential 21
comptroller 21
kerrys 21
paint 21
mess 21
swept 21
limiting 21
stroke 21
salazar 21
deployed 21
defining 21
interrogation 21
cocaine 21
clarence 21
willingness 21
plouffe 21
bright 21
banking 21
irish 21
theories 21
##second 21
drove 21
mone 21
outlining 21
helm 21
intervene 21
duncan 21
procedures 21
endless 21
republicancontrolled 21
dow 21
eastwood 21
endangered 21
properly 21
relative 21
filling 21
swiss 21
curtail 21
divisions 21
violate 21
julie 21
southeast 21
suburb 21
hunt 21
successfully 21
necessarily 21
acknowledging 21
#yearold 21
possession 21
glass 21
cummings 21
laying 21
undecided 21
buys 21
patty 21
device 21
pause 21
troubling 21
cites 21
steak 21
maya 21
honest 21
yor 21
foley 21
testified 21
anxiety 21
confronted 21
lies 21
protected 21
voiced 21
merkel 21
reps 21
saxby 21
extensive 21
pregnant 21
follows 21
extremist 21
joel 21
gabriel 21
negotiated 21
demonstration 21
samantha 21
regain 21
assets 21
dedication 21
gosnell 21
steadily 21
zuckerberg 21
barrett 21
applause 21
fat 21
prompting 21
achievement 21
archuleta 21
hil 21
doomed 21
generations 21
closes 21
lean 21
unanimous 20
eventual 20
overturned 20
circumstances 20
fueled 20
vow 20
bounce 20
contributor 20
length 20
worldwide 20
conclude 20
compares 20
postponed 20
musical 20
defeats 20
blind 20
chain 20
starbucks 20
ranked 20
oleary 20
snl 20
statebased 20
seal 20
compound 20
retake 20
implement 20
allied 20
ramping 20
interim 20
resolved 20
gillespie 20
attract 20
satellite 20
awa 20
g## 20
insist 20
spirit 20
feminist 20
presumed 20
winds 20
connie 20
valerie 20
rark 20
kinds 20
assured 20
score 20
jets 20
thousand 20
beautiful 20
impacts 20
polarizing 20
obscure 20
oldest 20
greek 20
guidance 20
labeled 20
dangers 20
tuition 20
dire 20
#rd 20
secretly 20
shy 20
transpacific 20
candy 20
inner 20
aisle 20
loud 20
briefed 20
penned 20
crazy 20
custody 20
totally 20
personhood 20
sudan 20
liar 20
admissions 20
roosevelt 20
nervous 20
airports 20
retail 20
comfortable 20
weapon 20
shoot 20
charging 20
myrtle 20
hug 20
pro 20
violates 20
rapid 20
types 20
survivors 20
entry 20
midst 20
buried 20
worries 20
angelou 20
morgan 20
jet 20
cry 20
surrogate 20
alleging 20
admission 20
australia 20
dminn 20
mills 20
linda 20
juan 20
software 20
offshore 20
accepts 20
gearing 20
tragic 20
bolton 20
authors 20
hundred 20
secrets 20
counterpart 20
spotted 20
mistakes 20
equally 20
rumors 20
operatives 20
website 20
scrambling 20
cheese 20
neurosurgeon 20
slain 20
chaotic 20
shaking 20
punishment 20
rampage 20
cook 20
parliamentary 20
monthslong 20
oath 20
hoover 20
nights 20
simon 20
recount 20
cordray 20
flood 20
prefer 20
slot 20
auditorium 20
noon 20
pleaded 20
annotated 20
brownback 20
atop 20
certificate 20
detainees 20
parttime 20
lab 20
preferred 20
securities 20
pauses 20
poland 20
nicholas 20
employer 20
burden 20
todays 20
condemns 20
teaching 20
purchase 20
earthquake 20
scale 20
shock 20
phased 20
routine 20
raw 20
spur 20
dfla 20
motion 20
lavish 20
conflicts 20
afraid 20
playbook 20
expands 20
locked 19
passenger 19
illness 19
advertisement 19
oscars 19
swearingin 19
frame 19
bristol 19
integrity 19
investigator 19
uphill 19
invitation 19
pollsters 19
hurts 19
costly 19
gene 19
gunman 19
cellphone 19
achieve 19
controlled 19
dressed 19
herbert 19
roof 19
dear 19
unofficial 19
mentions 19
embraces 19
heights 19
explanation 19
montgomery 19
demographic 19
ought 19
hide 19
beck 19
settled 19
toxic 19
tanks 19
carnegie 19
amash 19
confront 19
upheld 19
degree 19
articles 19
chaos 19
firstinthenation 19
volume 19
chavez 19
rankings 19
leahy 19
advisory 19
tops 19
arriving 19
affecting 19
technically 19
misses 19
amtrak 19
co 19
balz 19
burma 19
smoke 19
flash 19
em 19
dueling 19
assume 19
referring 19
foot 19
reflected 19
chiefs 19
disclosures 19
accurate 19
retirements 19
countr 19
distinction 19
regarded 19
travels 19
squarely 19
spirited 19
pen 19
bogus 19
minors 19
reids 19
retain 19
messina 19
defiant 19
virtual 19
filibusters 19
effectiveness 19
random 19
forceful 19
corp 19
rely 19
highranking 19
performed 19
cains 19
spouse 19
teach 19
warnings 19
uss 19
righ 19
enact 19
owe 19
freedomworks 19
tree 19
applewhiteassociated 19
models 19
passengers 19
oust 19
rises 19
electionyear 19
carol 19
crackdown 19
slim 19
pitches 19
painting 19
economist 19
contribute 19
perform 19
migrants 19
dominance 19
portsmouth 19
typically 19
followers 19
favorites 19
contains 19
pataki 19
gaffes 19
experiences 19
dominant 19
coakley 19
burkina 19
spree 19
eat 19
minn 19
doj 19
legion 19
extremely 19
purpose 19
labels 19
accuse 19
normally 19
controls 19
bulk 19
antonin 19
preparations 19
chapter 19
bases 19
judd 19
corbett 19
mock 19
demonstrated 19
underwood 19
unlike 19
firestorm 19
contributed 19
ranging 19
wildfires 19
forming 19
bi 19
tears 19
residence 19
burning 19
disorder 19
torture 19
doubling 19
transparent 19
deficits 19
accompanied 19
monument 19
chaffetz 19
snowe 19
convincing 19
exportimport 19
posttv 19
bashing 19
contain 19
pr 19
moral 19
limbaugh 19
outspoken 19
covers 19
downing 19
mining 19
hostage 19
kermit 19
grants 19
wildfire 19
authorize 19
dancing 19
flurry 19
affects 19
staffing 19
predecessor 19
betting 19
remarkably 19
fluke 19
exclusive 19
hint 19
spends 19
stick 19
initially 19
engineers 19
underscores 19
interrupted 19
confronts 18
dnh 18
correcte 18
plate 18
spin 18
abuses 18
hugs 18
benedict 18
courting 18
ofa 18
praising 18
counterparts 18
rind 18
dictator 18
gaddafi 18
resumes 18
berlin 18
exceptions 18
onethird 18
aids 18
teller 18
maher 18
topeka 18
cspan 18
farms 18
hitler 18
prevented 18
pbs 18
associate 18
heck 18
yearslong 18
knocks 18
ocean 18
roy 18
escalated 18
glimpse 18
previewing 18
village 18
youngest 18
millionaires 18
hilton 18
carrier 18
reversal 18
hospitalized 18
unfavorable 18
cheers 18
lebanon 18
flawed 18
browns 18
sec 18
index 18
bird 18
owned 18
blows 18
revamp 18
footage 18
elaine 18
damaging 18
notion 18
raid 18
liability 18
clashes 18
rebuild 18
bachmanns 18
pointing 18
matthew 18
heroin 18
towards 18
liked 18
providers 18
dover 18
refunds 18
dates 18
christine 18
remote 18
alexandria 18
strategies 18
dionne 18
shouting 18
indication 18
fracking 18
assad 18
surgeon 18
joplin 18
supportive 18
granite 18
baker 18
fashion 18
flow 18
participating 18
wound 18
coordinated 18
unveiling 18
attracted 18
impose 18
dining 18
outsourcing 18
communication 18
sticking 18
audiences 18
snowstorm 18
jumps 18
triggered 18
foul 18
fouryear 18
comedians 18
clarity 18
consultants 18
jeopardy 18
tw 18
legend 18
centrist 18
assess 18
cliven 18
rancho 18
versus 18
navigate 18
wh 18
contact 18
trum 18
loyal 18
iowans 18
truly 18
mack 18
policing 18
messaging 18
sounded 18
hostile 18
violation 18
capture 18
oscar 18
persuade 18
entitled 18
performing 18
suggestion 18
patriots 18
subpoenas 18
parody 18
videofoxnewscom 18
lawrence 18
recording 18
californias 18
samadafpgetty 18
completed 18
procedure 18
minted 18
springfield 18
crashed 18
rematch 18
africanamerican 18
careful 18
heather 18
beyonce 18
compiled 18
tables 18
burwell 18
anywhere 18
flew 18
unusually 18
atf 18
remind 18
palins 18
dwash 18
ridiculous 18
offenders 18
exim 18
revealing 18
rejecting 18
eventually 18
hacking 18
prisoners 18
buck 18
slogan 18
traction 18
tehran 18
excerpts 18
investigated 18
celebrities 18
faceoff 18
bears 18
proponents 18
lights 18
urgency 18
enzi 18
grows 18
brandonap 18
notorious 18
apology 18
stupid 18
mars 18
chats 18
disastrous 18
tweeting 18
directed 18
regrets 18
destroyed 18
netherlands 18
rain 18
sustained 18
factory 18
kent 18
symbolic 18
driver 18
gerrymandering 18
gregory 18
requested 18
symbol 18
forcefully 18
consecutive 18
rim 18
impassioned 18
dealt 18
complicate 18
chicken 18
sued 18
searching 18
ceneta 18
dna 17
master 17
duckworth 17
academic 17
factchecking 17
exact 17
sponsor 17
spoken 17
invite 17
abused 17
methods 17
mideast 17
deserves 17
turkish 17
petitions 17
jab 17
reutersjim 17
sochi 17
conservation 17
discovered 17
tropical 17
jarrett 17
copyright 17
fare 17
carsons 17
rift 17
combination 17
boo 17
shocked 17
declaration 17
magnate 17
advisor 17
##nd 17
governmentwide 17
survivor 17
majorities 17
primar 17
crude 17
explainer 17
tying 17
proves 17
unacceptable 17
kong 17
breakdown 17
condition 17
pitching 17
wildlife 17
hampton 17
sharon 17
delaying 17
forth 17
manner 17
lyndon 17
sunda 17
kenya 17
recorded 17
greatly 17
paula 17
sotomayor 17
gloves 17
wor 17
woo 17
fasttrack 17
antitax 17
monsivais 17
resident 17
blogs 17
taught 17
hotly 17
gamble 17
venture 17
marriott 17
lifetime 17
bags 17
habits 17
engineering 17
denying 17
laugh 17
enjoy 17
generals 17
mesa 17
escape 17
bids 17
commercials 17
successes 17
arnold 17
recalls 17
ou 17
infighting 17
unite 17
senat 17
alter 17
goldman 17
vincent 17
robust 17
exclusively 17
faso 17
overseeing 17
summers 17
tension 17
performs 17
cohen 17
hypothetical 17
trek 17
counselor 17
aspects 17
hed 17
banned 17
yellen 17
uk 17
cit 17
slip 17
regulators 17
exempt 17
chen 17
wu 17
displayed 17
douglas 17
foster 17
showget 17
ouster 17
oversees 17
hudson 17
crossed 17
expires 17
govern 17
specifics 17
davidson 17
assassination 17
intern 17
legislator 17
testifying 17
courtroom 17
wagner 17
tourism 17
civic 17
gig 17
inflation 17
kahnthe 17
recovered 17
relying 17
junior 17
reversed 17
neighboring 17
overturn 17
beauty 17
architect 17
touched 17
truck 17
prostitutes 17
remainder 17
artist 17
doma 17
irans 17
fraudulent 17
nugent 17
submit 17
poured 17
concession 17
idol 17
tickets 17
wrapping 17
admits 17
decidedly 17
fedbuzz 17
marketing 17
dying 17
gabby 17
embracing 17
expansive 17
performances 17
singing 17
bureaucracy 17
statistic 17
donate 17
desert 17
postpone 17
promoted 17
tighter 17
reminds 17
acknowledges 17
wednesdays 17
detained 17
trim 17
komen 17
alternatives 17
streak 17
robinson 17
wallace 17
plastic 17
encouraged 17
reminded 17
contributors 17
hart 17
trash 17
sons 17
tentative 17
wishes 17
rocked 17
affiliated 16
stern 16
welcomes 16
heating 16
fry 16
starring 16
marshall 16
enroll 16
incentives 16
watches 16
tester 16
knocked 16
reedreuters 16
self 16
kucinich 16
wives 16
oneyear 16
haunt 16
diowa 16
clients 16
disputed 16
disputes 16
bracket 16
congratulations 16
annually 16
pitched 16
excess 16
conviction 16
earns 16
forgotten 16
universal 16
movies 16
earl 16
vernon 16
waging 16
predicting 16
membership 16
barrage 16
hailed 16
motorcade 16
deadlines 16
stir 16
embraced 16
dalaska 16
incentive 16
introduces 16
corporation 16
vastly 16
boosting 16
brandon 16
rod 16
prep 16
inform 16
shooter 16
pilot 16
statue 16
enjoys 16
papers 16
rosen 16
sponsors 16
hunter 16
earlyvoting 16
rochester 16
sweep 16
raucous 16
rodney 16
listed 16
flanked 16
panels 16
breakthrough 16
jefferson 16
threequarters 16
staten 16
pastor 16
kingston 16
ordinary 16
vatican 16
protective 16
moon 16
spy 16
highlevel 16
rebel 16
gambling 16
apologized 16
recruits 16
overnight 16
##hour 16
switzerland 16
collins 16
commonwealth 16
distinguished 16
inbo 16
soros 16
ramos 16
princeton 16
debts 16
cracks 16
fireworks 16
photomanuel 16
arts 16
barry 16
norfolk 16
paths 16
courage 16
injuries 16
impeach 16
examples 16
gambit 16
deployment 16
encounter 16
treaty 16
containing 16
denounced 16
riot 16
sanchez 16
governmen 16
baldwin 16
alltime 16
contention 16
rankandfile 16
fishing 16
intention 16
lethal 16
lucas 16
oreilly 16
sr 16
cheneys 16
provider 16
fundamental 16
tornadoes 16
##point 16
personality 16
lashed 16
cal 16
freezes 16
amanda 16
complained 16
raedlegetty 16
yo 16
cheryl 16
watergate 16
stave 16
admit 16
generic 16
persistent 16
dry 16
kiev 16
principle 16
hunger 16
warrens 16
countdown 16
neck 16
bible 16
afternoo 16
hannity 16
taxing 16
sununu 16
grief 16
ernest 16
corrupt 16
totals 16
satisfaction 16
januar 16
numerous 16
narrative 16
ensign 16
angle 16
sanderss 16
scared 16
export 16
photomel 16
hole 16
backdrop 16
apri 16
demanded 16
flooding 16
uttered 16
hollande 16
tshirt 16
smile 16
bedford 16
gerald 16
kissing 16
stuart 16
appropriate 16
alarm 16
labrador 16
occasional 16
fighter 16
recruitment 16
donahoe 16
tools 16
extremists 16
insult 16
iron 16
steer 16
regret 16
cairo 16
griffin 16
thrown 16
undergo 16
coup 16
fathers 16
malia 16
nam 16
structure 16
employed 16
sasse 16
poet 16
gasoline 16
differently 16
cofounder 16
confronting 16
guardian 16
obligations 16
grim 16
bil 16
scholars 16
heel 16
lynn 16
digits 16
diana 16
weeken 16
queen 16
bathroom 16
trivia 16
accomplishments 16
stream 16
ignored 16
screenshot 16
universit 16
dumb 16
stolen 16
entrepreneurs 16
ammunition 16
arlen 16
florid 16
rocket 16
leak 16
boom 16
woods 15
hi 15
conceded 15
crown 15
fish 15
accomplished 15
surges 15
kerrey 15
johnston 15
hofstra 15
riots 15
sand 15
bypass 15
vetoed 15
denial 15
twoday 15
nurses 15
bundler 15
unwanted 15
horror 15
charities 15
thanking 15
chemicals 15
mcmorris 15
foia 15
gaymarriage 15
omb 15
wears 15
debuted 15
assigned 15
automatically 15
profits 15
shoes 15
bailey 15
beth 15
eliminating 15
outdoor 15
schwarzenegger 15
identifying 15
cell 15
planet 15
rivera 15
hammered 15
aiken 15
communist 15
trenton 15
diseases 15
fantasy 15
traditionally 15
jean 15
sometime 15
mismanagement 15
bluecollar 15
sum 15
avenue 15
jacksonville 15
waterloo 15
bought 15
unanswered 15
hidden 15
fairly 15
tournament 15
suspending 15
tear 15
blasting 15
aca 15
tpp 15
insiders 15
primarily 15
rhetorical 15
actors 15
insists 15
animal 15
kiss 15
proble 15
libertarians 15
pursuit 15
mantle 15
reset 15
jong 15
fragile 15
fortunes 15
bankrupt 15
sticks 15
soil 15
speec 15
austerity 15
nearing 15
likened 15
activism 15
photograph 15
proceedings 15
neb 15
zones 15
photopablo 15
exception 15
shame 15
formerly 15
designated 15
summary 15
forecasting 15
accountable 15
littleknown 15
danville 15
dysfunctional 15
aspect 15
kathy 15
fray 15
likelihood 15
bench 15
bleierafpgetty 15
gutierrez 15
nonprofits 15
epidemic 15
monuments 15
soaring 15
amend 15
linking 15
batch 15
associates 15
orange 15
promptly 15
nondiscrimination 15
ri 15
recommended 15
boca 15
stole 15
limbo 15
cite 15
freezing 15
curbing 15
biased 15
terri 15
refuse 15
toomey 15
leaning 15
sprint 15
consistently 15
holmes 15
prompts 15
element 15
trumka 15
disrupted 15
lifted 15
creates 15
foes 15
hears 15
rubi 15
pleads 15
handled 15
noaa 15
removing 15
plain 15
raton 15
yemen 15
rodgers 15
nofly 15
quell 15
expired 15
kings 15
couldnt 15
wary 15
replacing 15
meat 15
preparation 15
reimbursement 15
superstorm 15
agreeing 15
confused 15
conventio 15
shield 15
emerges 15
easing 15
pioneer 15
abandon 15
radar 15
outpacing 15
obamacar 15
levin 15
engineer 15
probes 15
rosa 15
threeyear 15
robyn 15
reflecting 15
vas 15
pierson 15
deval 15
klein 15
remembering 15
echoes 15
fiorinas 15
federalworker 15
sad 15
iconic 15
meals 15
wayne 15
crying 15
imposed 15
broadband 15
timely 15
digging 15
nominatio 15
klobuchar 15
compassion 15
envoy 15
observer 15
receives 15
wider 15
convictions 15
crystal 15
photodavid 15
bradley 15
ricketts 15
motivated 15
todo 15
nbcwall 15
finalize 15
eating 15
acres 15
inspection 15
catherine 15
evans 15
waited 15
exports 15
restricting 15
commit 15
dig 15
developments 15
maintained 15
staffs 15
divorce 15
favorably 15
meltdown 15
renews 15
missteps 15
extremism 15
aarp 15
intensive 15
billed 15
texa 15
lepage 15
earmarks 15
antigay 15
wideranging 15
commanding 15
shumlin 15
neighbors 15
secured 15
maneuver 15
appointees 15
stanley 15
missions 15
artur 15
championship 15
framework 15
depending 15
credible 15
universities 15
category 15
spilled 15
backtoback 14
promotion 14
mason 14
marched 14
festivities 14
zients 14
locke 14
disasters 14
surged 14
turner 14
dubious 14
tricky 14
tested 14
respective 14
disgraced 14
susana 14
barred 14
acted 14
suburbs 14
chorus 14
lock 14
meantime 14
indicated 14
sasha 14
mit 14
gut 14
interstate 14
fortune 14
intent 14
outlook 14
curtis 14
wouldnt 14
visas 14
hampshir 14
slide 14
investigative 14
widow 14
destruction 14
roth 14
moderates 14
loyalty 14
journey 14
bow 14
bets 14
storms 14
malaysian 14
havana 14
perspective 14
eggs 14
sparring 14
constant 14
intensified 14
prisoner 14
turkeys 14
evansap 14
leaking 14
rutgers 14
donnelly 14
duke 14
emphasized 14
clouds 14
prompt 14
representation 14
thensecretary 14
walden 14
relies 14
justify 14
naval 14
marlon 14
scathing 14
dealers 14
ambassadors 14
sentiment 14
takeover 14
unclear 14
cake 14
reliable 14
dore 14
nickname 14
nominates 14
blew 14
conclusions 14
manufacturers 14
demonstrations 14
accounting 14
commonly 14
surplus 14
billionaires 14
tankers 14
obesity 14
installment 14
painful 14
vucci 14
daybook 14
crafted 14
jabs 14
mohamed 14
dewhurst 14
dilemma 14
ordinance 14
occasionally 14
selma 14
witnesses 14
debtreduction 14
vt 14
caption 14
sandusky 14
audio 14
brussels 14
heats 14
bee 14
huckabees 14
sho 14
paycheck 14
reflection 14
congresss 14
recognized 14
ethical 14
sporting 14
allred 14
booming 14
reminding 14
alternate 14
knight 14
fetal 14
partially 14
contraceptive 14
visible 14
shook 14
tangherlini 14
beef 14
nm 14
glitches 14
stumbles 14
simpsons 14
eligibility 14
evangelicals 14
throws 14
blank 14
measured 14
costing 14
province 14
columba 14
novembe 14
arguably 14
trailing 14
beast 14
paperwork 14
eisenhower 14
devices 14
disclosing 14
tendency 14
convene 14
fiveyear 14
hayes 14
ive 14
memories 14
mask 14
canceling 14
kaiser 14
dismissal 14
warfare 14
principal 14
selecting 14
ink 14
jacob 14
aware 14
fever 14
hogan 14
luxury 14
cattle 14
rnh 14
illustration 14
coral 14
absent 14
nutrition 14
valuable 14
peak 14
groundwork 14
positioned 14
loopholes 14
tonigh 14
plattgetty 14
boots 14
perfectly 14
intentions 14
desperate 14
budgetary 14
conan 14
pride 14
faults 14
warrior 14
iowas 14
mac 14
dutch 14
brooks 14
carmona 14
crafting 14
benton 14
suffer 14
jared 14
husbands 14
mirror 14
payday 14
reserved 14
morris 14
kochs 14
cycles 14
gifs 14
disappeared 14
handles 14
trucks 14
array 14
outraised 14
shirley 14
racing 14
jurors 14
softball 14
jahi 14
risky 14
fastest 14
achieved 14
advocating 14
electability 14
fled 14
billy 14
maintains 14
publication 14
shell 14
perceptions 14
travelers 14
unfolding 14
swag 14
refor 14
bundlers 14
shutdowns 14
sexism 14
rebellion 14
ownership 14
tune 14
divides 14
seventh 14
lanes 14
mali 14
vocal 14
brewing 14
morocco 14
involves 14
halted 14
belgium 14
roads 14
wore 14
spanishlanguage 14
clearances 14
steam 14
descend 14
quoted 14
pla 14
cardin 14
terrific 14
barbs 14
feuds 14
repay 14
messy 14
selfies 14
grocery 14
watt 14
stunned 14
smialowskiafpgetty 14
filings 14
shed 14
panama 14
tips 14
calm 14
responsive 14
assaults 14
unfair 14
sparred 14
builds 14
attached 14
milk 14
profiling 14
moammar 14
disappointed 14
abu 14
publisher 14
bully 14
dividing 14
restrictive 14
breaches 14
pressphoto 14
diane 14
industrial 14
rides 14
scalzo 14
craft 14
deliberations 14
characters 14
escorted 14
incorrect 14
protects 14
headache 14
derry 14
improper 14
rio 14
posing 14
panic 14
hurdles 14
amazon 14
mouth 13
williamsonthe 13
lingering 13
borough 13
defy 13
francois 13
baton 13
attendance 13
interviewed 13
deductions 13
waning 13
surrogates 13
vetoes 13
jae 13
prohibition 13
marty 13
credibility 13
franklinap 13
excitement 13
portraits 13
subjects 13
techniques 13
kitchen 13
confusing 13
reproductive 13
mulling 13
dartmouth 13
congressmen 13
fallin 13
investing 13
grill 13
absence 13
reviewed 13
vacancies 13
goldmanap 13
rivalry 13
undated 13
relatives 13
amnesty 13
sway 13
digs 13
diagnosed 13
vogue 13
fleeing 13
adams 13
knife 13
longawaited 13
halts 13
maps 13
godfather 13
breast 13
planes 13
moniz 13
righttowork 13
lagging 13
visualized 13
displaced 13
hail 13
rushed 13
circus 13
preserving 13
description 13
angerergetty 13
burns 13
overrated 13
deleted 13
roe 13
emphasizes 13
qualified 13
eagle 13
milton 13
hoekstra 13
drastically 13
spacey 13
inability 13
taste 13
directors 13
treating 13
genetically 13
airtime 13
photojacquelyn 13
fitness 13
uphold 13
makers 13
arne 13
theatre 13
precincts 13
relax 13
household 13
canyon 13
concealed 13
relating 13
kanye 13
fifa 13
equipped 13
caroline 13
bombs 13
twin 13
fairness 13
penalties 13
anxious 13
emphasizing 13
woodward 13
tally 13
surely 13
lynchburg 13
championed 13
generous 13
naturally 13
smooth 13
mccollestergetty 13
sharper 13
bennett 13
##week 13
ordering 13
rome 13
abrupt 13
plates 13
insurgent 13
acknowledge 13
weaknesses 13
sprawling 13
sheet 13
gohmert 13
bucket 13
wondered 13
hhs 13
guaranteed 13
guarantees 13
inslee 13
qatar 13
rupert 13
nuns 13
located 13
blake 13
achievements 13
wapo 13
owns 13
patricia 13
sonia 13
racially 13
notices 13
insults 13
dynamic 13
kabul 13
dawn 13
speechwriter 13
visitor 13
opt 13
sooner 13
alfred 13
unpopularity 13
youngreuters 13
interactive 13
twoweek 13
bullying 13
combative 13
feelings 13
harper 13
resist 13
boxes 13
ballroom 13
wasting 13
recipe 13
mocking 13
capitalize 13
flies 13
departs 13
fee 13
weve 13
investor 13
harmful 13
probing 13
mentionmachine 13
substantially 13
washingtons 13
tribal 13
boosted 13
cannabis 13
refer 13
waiver 13
jeremiah 13
crop 13
prosecution 13
enrolled 13
expresses 13
resulting 13
hawk 13
counted 13
degrees 13
fiveday 13
clooney 13
distribution 13
seated 13
chicag 13
projections 13
privatesector 13
perceived 13
strickland 13
commissioned 13
hardest 13
simpsonbowles 13
realities 13
firmly 13
hierarchy 13
ye 13
randy 13
damn 13
rala 13
chant 13
jorge 13
grab 13
bucks 13
erik 13
rodman 13
implemented 13
ward 13
malloy 13
sugar 13
propaganda 13
attracting 13
emailed 13
participates 13
coveted 13
jfk 13
youve 13
sophisticated 13
mobilizing 13
junkie 13
ancient 13
hilary 13
relevant 13
augusta 13
foxx 13
proper 13
poorly 13
cnnopinion 13
coffers 13
ultimate 13
bryson 13
dysfunction 13
founding 13
saga 13
questionable 13
federalemployee 13
nathan 13
collects 13
tiger 13
seahawks 13
friendship 13
characterized 13
slower 13
barring 13
slamming 13
sparking 13
gables 13
boggs 13
barnes 13
peril 13
heckled 13
hammer 13
jane 13
walshassociated 13
destroy 13
spark 13
photoseth 13
blah 13
healthinsurance 13
hello 13
swirling 13
proobama 13
swiftly 13
defender 13
repair 13
phot 13
ramp 13
syri 13
undercover 13
meaningful 13
fellows 13
analytics 13
restructuring 13
sharpton 13
lifting 13
kane 13
nearby 13
upholds 13
viability 13
expecting 13
chancellor 13
savvy 13
defies 13
governo 13
janesville 13
punish 13
jockeying 13
penny 13
longrunning 13
economies 13
bodies 13
handel 13
ailing 13
nyc 13
personalities 13
parent 13
opted 13
substantive 13
degeneres 13
coverup 13
clips 13
failures 13
sing 13
bridges 13
insisting 13
arming 13
ramps 13
gate 13
scenario 13
cracked 13
bluffs 13
factors 13
commissioners 13
owes 13
clerks 13
postage 13
ethiopia 13
pastors 13
plagiarism 13
bars 13
rip 13
murdoch 13
metro 13
heidi 13
unfairly 13
ire 12
melinda 12
municipal 12
marshals 12
tamp 12
intend 12
stays 12
approving 12
locations 12
imagined 12
vaccines 12
sums 12
rage 12
cream 12
midwest 12
swipe 12
recognizing 12
flowing 12
tape 12
dharapakassociated 12
comcast 12
elusive 12
policymakers 12
bracing 12
beloved 12
frederick 12
exciting 12
backup 12
tracks 12
cathy 12
revelation 12
bryan 12
experimental 12
withholding 12
resolving 12
boards 12
wrapped 12
halting 12
northwest 12
compromised 12
undersecretary 12
buddy 12
athletes 12
maria 12
trigger 12
merely 12
allimportant 12
nazi 12
awareness 12
blumenthal 12
asserted 12
locher 12
tanzania 12
cure 12
intensifies 12
groceries 12
havent 12
ceasefire 12
stayathome 12
grayson 12
pakistani 12
mccotter 12
finger 12
clyburn 12
rwyo 12
sang 12
maggie 12
confirming 12
erickson 12
candidat 12
beside 12
sunlight 12
suspicions 12
deliveries 12
nursing 12
bialek 12
andrea 12
relied 12
ridaho 12
obstacle 12
continent 12
scanda 12
refuses 12
plaza 12
impressed 12
rainbow 12
concludes 12
reeling 12
teenagers 12
chairmanship 12
yearold 12
carries 12
sharron 12
electricity 12
mired 12
complaining 12
departing 12
menu 12
rmaine 12
facetoface 12
vega 12
indicate 12
conyers 12
costa 12
beverly 12
greenwald 12
nope 12
sesame 12
huffington 12
npr 12
issu 12
figured 12
jenner 12
dust 12
appointments 12
organize 12
hanna 12
subtle 12
physician 12
closings 12
mocked 12
lineup 12
graph 12
carville 12
averted 12
birds 12
sandoval 12
punished 12
phelps 12
doubledigit 12
stages 12
fa 12
renewing 12
trailer 12
manning 12
donna 12
ceremonies 12
critiques 12
hilda 12
obituary 12
appoint 12
ups 12
evolving 12
partisans 12
economists 12
toptier 12
fields 12
burn 12
intellectual 12
derail 12
somalia 12
holders 12
pharmaceutical 12
assessing 12
reluctant 12
boisterous 12
hated 12
pep 12
commentator 12
severely 12
campuses 12
regions 12
rei 12
splits 12
procurement 12
solicitor 12
retribution 12
disney 12
studio 12
notified 12
meyer 12
reconsider 12
descended 12
emphasis 12
vetted 12
pols 12
waded 12
jun 12
announcements 12
generate 12
outstanding 12
scrutinized 12
separation 12
americ 12
unpredictable 12
painted 12
feingold 12
routinely 12
bosses 12
marching 12
caution 12
scholar 12
disdain 12
damages 12
enemies 12
bite 12
sixyear 12
sterling 12
leverage 12
tierney 12
februar 12
pickup 12
reposting 12
dubbed 12
gotcha 12
allegation 12
enda 12
invites 12
drink 12
rooms 12
whopping 12
bike 12
bang 12
autopsy 12
enjoyed 12
progressives 12
brat 12
duties 12
incorrectly 12
augus 12
tonights 12
reutersbrian 12
muscular 12
grateful 12
entries 12
flames 12
sport 12
callista 12
overturning 12
mormonism 12
ralaska 12
postbloomberg 12
excuse 12
providence 12
suits 12
contraceptives 12
nationals 12
precisely 12
invisible 12
dose 12
gettysburg 12
bona 12
stealing 12
realestate 12
plaintiffs 12
destructive 12
shaky 12
grabs 12
draper 12
unhappy 12
dga 12
hawkish 12
goods 12
exploration 12
design 12
reserves 12
spell 12
discretionary 12
mia 12
pattern 12
dissent 12
italian 12
assuming 12
colorados 12
adjust 12
firstterm 12
decennial 12
voucher 12
oversaw 12
hedge 12
engine 12
blessing 12
reins 12
tags 12
hangs 12
dzhokhar 12
wyden 12
headlined 12
granting 12
cathedral 12
ignoring 12
smell 12
films 12
insurgency 12
myths 12
adegbile 12
dress 12
labeling 12
giants 12
dependent 12
temple 12
elements 12
purposes 12
tier 12
cusp 12
beneath 12
embroiled 12
inspiration 12
bushera 12
photoevan 12
casinos 12
lax 12
genuine 12
concerning 12
afge 12
brave 12
cares 12
nigeria 12
chronicle 12
indianapolis 12
cleaning 12
pearce 12
button 12
purchasing 12
skeptics 12
medals 12
dodge 12
reservations 12
undergoing 12
mandated 12
chest 12
bahrain 12
colorful 12
reddit 12
flexibility 12
soul 12
irene 12
disciplinary 12
measles 12
stacked 12
ranger 12
mcconnells 12
connect 12
lena 12
harold 12
nonfiction 12
clues 12
tremendous 12
copies 12
linkedin 12
assembled 12
pokes 12
danny 12
kinder 12
hamilton 12
previews 12
script 12
lap 12
ethnic 12
dive 12
kammafpgetty 12
centre 12
boon 12
woody 11
errors 11
pints 11
secede 11
clarifies 11
proisrael 11
survival 11
trails 11
drafted 11
suspension 11
corrected 11
brett 11
definition 11
sunni 11
bell 11
marquee 11
beckafpgetty 11
spat 11
faded 11
educational 11
cochair 11
vying 11
gibbs 11
repeat 11
searches 11
repor 11
lifelong 11
noem 11
concept 11
teamed 11
burst 11
eellsbloomberg 11
confab 11
dubuque 11
bookers 11
resounding 11
anytime 11
obviously 11
informal 11
determining 11
url 11
nightmare 11
examined 11
demonstrates 11
kisses 11
whirlwind 11
reviving 11
foods 11
operate 11
forgot 11
ginger 11
heyman 11
commemorating 11
dismiss 11
trimming 11
dohio 11
anticipation 11
defying 11
burgeoning 11
judging 11
convened 11
vivek 11
passionate 11
enjoying 11
socially 11
tayyip 11
unscheduled 11
doubles 11
nukes 11
psaki 11
pleading 11
chu 11
highs 11
occasion 11
laredo 11
flip 11
befor 11
herald 11
tourists 11
endowment 11
forecasts 11
sings 11
vetting 11
tactic 11
usher 11
kochbacked 11
eighth 11
succeeded 11
loophole 11
catching 11
tumultuous 11
turf 11
administratio 11
portions 11
weed 11
cease 11
feminism 11
invoke 11
shirt 11
problematic 11
clemency 11
agencys 11
leveled 11
settling 11
budge 11
hemp 11
superior 11
hoffmangetty 11
bashes 11
voterid 11
transfer 11
lynne 11
laboratory 11
gauge 11
chile 11
sotu 11
dealer 11
vet 11
bigmoney 11
reclaim 11
webster 11
polic 11
altered 11
marvin 11
breath 11
econom 11
crimean 11
ac 11
candid 11
rodriguez 11
buyouts 11
persona 11
proxy 11
reversing 11
shutdow 11
defines 11
leg 11
slogans 11
reynolds 11
burton 11
bigstock 11
studying 11
oneonone 11
bayonets 11
onion 11
crisi 11
hochul 11
forgiven 11
prekindergarten 11
churches 11
fiveweek 11
nigerian 11
dw 11
caps 11
cape 11
indianola 11
purple 11
lewd 11
exiting 11
retiree 11
retires 11
redstate 11
towers 11
explicit 11
indeed 11
ej 11
secondlargest 11
benefited 11
courier 11
credits 11
nerd 11
concerted 11
fo 11
firstclass 11
grenell 11
trees 11
deploying 11
partly 11
mitchell 11
dime 11
user 11
transformation 11
russias 11
clout 11
wading 11
warrant 11
ghost 11
cesar 11
recommend 11
revenge 11
executions 11
brinker 11
sheryl 11
discontent 11
unleashed 11
sidelines 11
designate 11
burr 11
islands 11
primer 11
herey 11
pathway 11
gesture 11
accurately 11
knives 11
disappointment 11
shelter 11
transit 11
walls 11
pleasant 11
rebound 11
integration 11
mobilize 11
mikulski 11
slipping 11
embarrassed 11
tide 11
testy 11
rall 11
poorest 11
lankford 11
upholding 11
coin 11
unorthodox 11
wrangling 11
mathews 11
na 11
chocolate 11
albuquerque 11
invokes 11
kingdom 11
mormons 11
conflicted 11
deja 11
condemnation 11
pundit 11
dismissing 11
cries 11
unsuccessful 11
intentionally 11
fictional 11
dhabi 11
channels 11
denounce 11
birmingham 11
mccutcheon 11
constantly 11
burlington 11
redemption 11
scope 11
awesome 11
elijah 11
johnny 11
dodged 11
microsoft 11
rebecca 11
advertisements 11
format 11
directive 11
invented 11
legendary 11
sylvia 11
shiite 11
harnik 11
vu 11
mcgovern 11
breakout 11
lasted 11
chef 11
motivate 11
voiceover 11
broun 11
irony 11
trick 11
reelectio 11
equivalent 11
log 11
lou 11
reelect 11
publish 11
knocking 11
dominating 11
wings 11
renewal 11
assignments 11
documented 11
underground 11
nightly 11
inaccurate 11
ricin 11
adult 11
aging 11
faulty 11
doc 11
nlrb 11
erdogan 11
wanting 11
dreams 11
outdated 11
petersburg 11
consequential 11
bash 11
accusation 11
deepening 11
distributed 11
garcia 11
repairs 11
burned 11
briefings 11
predecessors 11
harassed 11
aa 11
ohi 11
muchanticipated 11
swingstate 11
sanctuary 11
postpew 11
gif 11
aspen 11
pos 11
premature 11
awful 11
outraged 11
dine 11
disappointing 11
peoples 11
advise 11
analyze 11
echo 11
cellphones 11
swear 11
jenny 11
ceos 11
hague 11
impeaching 11
holt 11
significance 11
symposium 11
mueller 11
revolt 11
object 11
sexist 11
unexpectedly 11
wikipedia 11
spurred 11
beset 11
bowing 11
freetrade 11
unaware 11
explored 11
truce 11
suspends 11
punk 11
invoking 11
summed 11
method 11
generalelection 11
differ 11
arrests 11
surprises 11
anita 11
wilmington 11
chained 11
thenre 11
marianne 11
pessimism 11
coleap 11
avoids 11
ideal 11
newspapers 11
horizon 11
shrink 11
sacrifice 11
samuel 11
hensarling 11
donating 11
improvement 11
assumed 11
authoritarian 11
shuffle 11
sustain 11
lit 11
basement 11
steele 11
bare 11
goldberg 11
microphone 11
likens 11
rogelio 11
courageous 11
deemed 11
mandates 11
spoiler 11
silly 11
bac 11
emboldened 11
cnas 11
flu 11
hassan 11
occupied 11
gaga 11
traded 11
everyday 11
mob 11
notably 11
spreading 11
astronaut 11
ripple 11
mistakenly 11
newseum 11
smallest 11
italy 11
posttraumatic 11
uncomfortable 11
depression 11
dinners 11
lined 11
barriers 11
waterboarding 11
soft 11
crusade 11
respects 11
rnev 11
venue 11
christ 11
ethanol 11
punching 11
guarantee 11
hearts 11
yale 11
drinks 11
felicia 11
wood 11
peaceful 11
drives 11
perennial 11
fal 11
speeding 11
burtongetty 11
prop 11
adjustment 11
cooperate 11
turbulent 11
withdraws 11
withdrawn 11
premiere 11
empire 11
wikimedia 10
barton 10
oprah 10
teresa 10
hamas 10
alice 10
czech 10
billboard 10
yellowstone 10
whoever 10
fourday 10
trauma 10
zoo 10
printed 10
fascinated 10
impressions 10
edges 10
disparaging 10
russ 10
campaignstyle 10
doom 10
hugo 10
omaha 10
motors 10
vot 10
climb 10
considerably 10
erick 10
suppression 10
broaden 10
bolstered 10
upstate 10
fielding 10
choosing 10
splintered 10
exposure 10
seaso 10
stressed 10
coins 10
pulitzer 10
prolife 10
innovative 10
inadvertently 10
panned 10
insurgents 10
tissue 10
traditions 10
newton 10
putins 10
songs 10
combatant 10
terrill 10
firearm 10
drastic 10
grandson 10
megadonors 10
naming 10
tangled 10
professionals 10
mrs 10
twelve 10
ideology 10
steelman 10
visions 10
reopening 10
birthplace 10
taxpayerfunded 10
mccains 10
thanked 10
examines 10
discord 10
accidents 10
crops 10
bumps 10
chrysler 10
lucrative 10
inflammatory 10
gordon 10
venezuela 10
hawks 10
lovely 10
pessimistic 10
supervisors 10
threshold 10
cancelled 10
incarceration 10
breyer 10
donovan 10
attackers 10
collision 10
biography 10
comfort 10
kamala 10
screener 10
safer 10
williamsburg 10
dca 10
stirred 10
ricky 10
exeter 10
reforming 10
consolidate 10
pardoned 10
mum 10
spurs 10
groundbreaking 10
epas 10
porn 10
injunction 10
casey 10
vital 10
nicole 10
ironic 10
reshape 10
ninth 10
alleges 10
apartment 10
semansky 10
saint 10
entirety 10
grievances 10
shiro 10
etch 10
nick 10
showcase 10
concessions 10
coordinating 10
scalzoepa 10
karzai 10
decent 10
cameo 10
facial 10
distract 10
rightwing 10
incredibly 10
gaming 10
geneva 10
upend 10
irresponsible 10
derailed 10
invested 10
forefront 10
deeds 10
experiencing 10
bourgreuters 10
licensed 10
cowan 10
institutes 10
owen 10
bp 10
supervisor 10
categories 10
czar 10
steel 10
reauthorization 10
migrant 10
phd 10
disapproval 10
bronze 10
nascent 10
neighborhoods 10
cox 10
col 10
suicides 10
domenici 10
viable 10
objective 10
concert 10
justified 10
lamarque 10
freythe 10
awarding 10
desperately 10
belong 10
fanfare 10
cyberattack 10
lessig 10
favorability 10
twoman 10
chunk 10
fuels 10
ethan 10
definitive 10
secretive 10
antimuslim 10
vulnerability 10
omar 10
hood 10
scrap 10
filibustered 10
metropolitan 10
iv 10
ship 10
diet 10
editors 10
pedroncelliap 10
accidentally 10
tilt 10
cartels 10
admitting 10
nose 10
inject 10
downingreuters 10
scout 10
jonah 10
clergy 10
deb 10
par 10
coauthor 10
approximately 10
twenty 10
stirs 10
commentary 10
hagels 10
feared 10
emphasize 10
arpaio 10
educators 10
crow 10
philosophy 10
revived 10
rex 10
bisexual 10
cosby 10
encounters 10
junkies 10
yorkers 10
detractors 10
divergent 10
beaten 10
arizonas 10
inspire 10
campbell 10
cooper 10
heal 10
fitzgerald 10
withhold 10
bezos 10
floods 10
combating 10
enduring 10
berkley 10
shelby 10
arthur 10
mountains 10
dylann 10
astrid 10
bitterly 10
heir 10
molly 10
prosecute 10
dual 10
chattanooga 10
urbandale 10
aggression 10
exposing 10
repealed 10
joy 10
pressures 10
logic 10
privilege 10
scam 10
wrap 10
costofliving 10
sa 10
establishing 10
crushing 10
squared 10
netroots 10
obamacares 10
marquette 10
survives 10
blagojevich 10
dogged 10
plotting 10
livestock 10
deport 10
cabine 10
stunt 10
ambassadorial 10
dating 10
lebron 10
highways 10
bonnie 10
chinas 10
outcomes 10
muhammad 10
fides 10
listened 10
absentee 10
pussy 10
lowered 10
ind 10
schlonged 10
ebook 10
alumni 10
seizure 10
applied 10
farther 10
belongs 10
rnj 10
airplane 10
protestors 10
directing 10
antiwar 10
checked 10
lansing 10
greeting 10
thatcher 10
glitch 10
yi 10
photodanny 10
dominates 10
ousted 10
recalled 10
lacking 10
plots 10
chang 10
weiners 10
roiling 10
blinken 10
mistaken 10
sponsoring 10
besides 10
revolving 10
gym 10
consumed 10
dod 10
materials 10
buyers 10
outskirts 10
freemarket 10
battered 10
maxine 10
fend 10
marist 10
macarthur 10
caucusgoers 10
deer 10
ruin 10
deliberately 10
sideshow 10
depicting 10
lame 10
boxing 10
afterward 10
ailes 10
gibson 10
akins 10
soviet 10
oak 10
philadelphi 10
zach 10
unilateral 10
dishonest 10
frustrations 10
buildin 10
cowboy 10
crews 10
lonely 10
unfortunately 10
imposing 10
irrelevant 10
champions 10
insurers 10
reward 10
disrupt 10
joking 10
tagg 10
berkeley 10
inquiries 10
liveblogging 10
outrageous 10
insulted 10
cdc 10
downturn 10
nader 10
stating 10
shaped 10
distrust 10
sections 10
tumulty 10
famil 10
sin 10
badger 10
souza 10
worlds 10
tepid 10
vacations 10
russians 10
incendiary 10
tumblr 10
photoross 10
bacon 10
unit 10
holy 10
seinfeld 10
pits 10
yorks 10
veepstakes 10
nascar 10
momen 10
compelled 10
unnamed 10
prestigious 10
invoked 10
constituency 10
gdp 10
gunrights 10
concluding 10
punches 10
viewing 10
mccaul 10
input 10
clancy 10
animals 10
fulfill 10
weaken 10
producer 10
rouge 10
mere 10
thrust 10
recep 10
fellowship 10
tipping 10
accompany 10
protracted 10
lauderdale 10
sticker 10
sting 10
quotes 10
twoterm 10
exrep 10
somehow 10
mentalhealth 10
heroes 10
eliminated 10
slaves 10
alcoholism 10
angered 10
coordinate 10
willie 10
steered 10
daisy 10
lin 10
kurdish 10
bruising 10
dissatisfaction 10
wichita 10
mosque 10
pursued 10
achilles 10
tread 10
shortfall 10
coordination 10
monetary 10
updates 10
pardons 10
jams 10
scoring 10
weakness 10
participated 10
reconstruction 10
photorogelio 10
tapping 10
murders 10
floating 10
millennial 10
finishing 10
movements 10
skeet 10
premium 10
distinct 10
staggering 10
macmillan 10
difficulty 10
pilots 10
ages 10
beshear 10
holocaust 10
birthright 10
primarie 10
apple 10
bio 10
lima 10
lecture 10
improvements 10
exceptional 10
promotes 10
pin 10
pie 10
pit 10
halfdozen 10
sleep 10
sharpest 10
slowed 10
modified 10
encourages 10
assertions 10
shops 10
favreau 10
catholics 10
chikwendiuthe 10
jindals 10
unilaterally 10
moine 10
anne 10
underscored 10
decadeslong 10
guru 10
agreements 10
boos 10
pomp 9
altogether 9
clarified 9
captive 9
honeymoon 9
shoots 9
dues 9
skewed 9
wva 9
albright 9
admired 9
shawn 9
preference 9
pivot 9
brazilian 9
bubble 9
obrien 9
floated 9
deeppocketed 9
understands 9
sunny 9
belt 9
blizzard 9
dynamics 9
turnaround 9
orchestrated 9
commuter 9
wed 9
applicants 9
walters 9
lauds 9
debunked 9
machines 9
postpones 9
indicates 9
lexington 9
edited 9
thursdays 9
dmitry 9
yeah 9
haraz 9
heightened 9
haram 9
exposes 9
stockpile 9
producing 9
unresolved 9
jamie 9
patriotism 9
mantra 9
airstrike 9
albany 9
blair 9
flagging 9
placing 9
livetweeting 9
surveyed 9
unseated 9
hongap 9
humphrey 9
unfinished 9
hoffmanbloomberg 9
strains 9
surface 9
###k 9
distant 9
propelled 9
aclu 9
neely 9
stan 9
decrying 9
downright 9
fitting 9
zealand 9
tina 9
stein 9
renaissance 9
thune 9
annuity 9
sample 9
meme 9
squad 9
boundaries 9
kunduz 9
capable 9
sleeping 9
toss 9
alma 9
hails 9
merger 9
ravaged 9
pallone 9
reutersjason 9
carolin 9
monmouth 9
restoration 9
y 9
chasing 9
quo 9
photopatrick 9
racked 9
lanny 9
productivity 9
sisters 9
comparisons 9
dcs 9
settles 9
leagues 9
situations 9
assurances 9
antiincumbent 9
brawl 9
marion 9
trent 9
toughen 9
durham 9
boris 9
lamented 9
hasner 9
sciences 9
spaces 9
believing 9
unsure 9
commitments 9
delicate 9
segarreuters 9
tribe 9
blues 9
suv 9
binders 9
contrasting 9
zombie 9
examination 9
sandberg 9
collaboration 9
respondents 9
madeleine 9
harnikap 9
exceed 9
horrific 9
incredible 9
captain 9
truman 9
eagerly 9
votin 9
alask 9
####### 9
developers 9
sectors 9
matched 9
hockey 9
clearest 9
expression 9
townhall 9
lesserknown 9
omalleys 9
shaun 9
oneill 9
myself 9
accompanying 9
evolved 9
slipped 9
historian 9
kasterassociated 9
secondranking 9
delhi 9
prosecuted 9
criticisms 9
takedown 9
sided 9
rescued 9
trudeau 9
recalling 9
ministers 9
bend 9
await 9
jumpstart 9
acquitted 9
megan 9
prohibits 9
exchanged 9
catastrophic 9
robocalls 9
romance 9
bali 9
realize 9
compromising 9
wellfunded 9
bunker 9
devote 9
thea 9
flock 9
thiessen 9
jayz 9
dumped 9
hutchinson 9
formidable 9
inclusive 9
permanently 9
embassies 9
wong 9
dispatch 9
malala 9
oakland 9
paints 9
dominican 9
comics 9
overreach 9
confidential 9
opting 9
alzheimer 9
injury 9
thompsonap 9
ash 9
labour 9
booze 9
battlegrounds 9
readying 9
photoalex 9
overlooked 9
distances 9
evaluate 9
forge 9
rebukes 9
g# 9
odonnell 9
modi 9
pelosis 9
lukewarm 9
drowning 9
dpa 9
horrible 9
controllers 9
###page 9
twist 9
tidbits 9
expose 9
polis 9
vfw 9
sluggish 9
enrollees 9
brock 9
hotbutton 9
stresses 9
azerbaijani 9
wolfeboro 9
daytime 9
tracker 9
contrasts 9
stall 9
asserting 9
stability 9
daviss 9
killer 9
perlman 9
monster 9
hefty 9
trolling 9
constituencies 9
forprofit 9
rancher 9
hugely 9
patton 9
uprising 9
faculty 9
banquet 9
highestranking 9
gospel 9
openness 9
pricey 9
whitney 9
pet 9
neutrality 9
underscoring 9
optics 9
thwart 9
taxdelinquent 9
coloring 9
indicators 9
forbes 9
snapped 9
mcfaul 9
streamline 9
tricare 9
corn 9
genocide 9
medium 9
henderson 9
tarmac 9
thirty 9
fundraise 9
sherman 9
southwestern 9
picnic 9
existence 9
knoxville 9
usisrael 9
producers 9
hawkeye 9
perilous 9
engulfed 9
morrison 9
jul 9
invest 9
argentina 9
uniforms 9
populous 9
slots 9
understood 9
boko 9
vienna 9
checkers 9
kris 9
andor 9
tyler 9
uniting 9
embarrassment 9
committe 9
loser 9
analyses 9
anselm 9
exceptionalism 9
meadows 9
cult 9
counseling 9
drawdown 9
speeds 9
debo 9
defiance 9
sleepy 9
###yearold 9
wikileaks 9
se 9
drunken 9
stephanopoulos 9
asleep 9
merit 9
vacuum 9
spinning 9
jen 9
rfl 9
startup 9
fractured 9
spain 9
britains 9
renowned 9
retaking 9
hillarys 9
perkins 9
coauthored 9
farming 9
electing 9
skipping 9
disagreement 9
stringent 9
precedent 9
cargo 9
curse 9
obligation 9
ominous 9
extramarital 9
noble 9
toby 9
recipient 9
illnesses 9
imprisoned 9
lowwage 9
loom 9
mcchrystal 9
secession 9
shine 9
ahmadinejad 9
segregation 9
wellbeing 9
booth 9
intraparty 9
neckandneck 9
margins 9
photoeric 9
swinging 9
neutral 9
adopting 9
frenzy 9
somber 9
roast 9
helen 9
boarding 9
grilled 9
kin 9
wasteful 9
bounds 9
ruemmler 9
manages 9
smartphone 9
swipes 9
arbor 9
undisclosed 9
rebuttal 9
worrying 9
dunham 9
grid 9
costcutting 9
romantic 9
dvt 9
component 9
cynical 9
replaces 9
discourse 9
grammy 9
contacted 9
huddled 9
airbnb 9
denouncing 9
technologies 9
awaits 9
curtain 9
wyo 9
muscle 9
withdrew 9
fairfax 9
feisty 9
mentor 9
toy 9
advising 9
marawashington 9
gopcontrolled 9
transform 9
faithful 9
invaded 9
cardinal 9
cope 9
sells 9
hungry 9
recounted 9
persons 9
ranch 9
regard 9
brass 9
dish 9
salvador 9
allege 9
disagrees 9
eulogy 9
pump 9
notch 9
critically 9
unflattering 9
governmental 9
waukesha 9
swath 9
plead 9
guntrafficking 9
privatize 9
reverses 9
stockman 9
kidding 9
passport 9
revisit 9
ronnie 9
ate 9
unintended 9
incomplete 9
plagued 9
holdings 9
hardliners 9
lacked 9
heitkamp 9
distancing 9
loving 9
explores 9
outlet 9
dome 9
residency 9
prominence 9
lehrer 9
runoffs 9
intimate 9
mourns 9
bloggers 9
vie 9
condemn 9
broadcasting 9
usajobs 9
shorter 9
exaggerated 9
illustrates 9
villaraigosa 9
scary 9
scare 9
touring 9
haven 9
negatively 9
vacancy 9
inperson 9
hecklers 9
hiding 9
satisfied 9
lull 9
steal 9
injuring 9
banker 9
uprisings 9
switches 9
angele 9
aiding 9
accomplish 9
newswall 9
demote 9
flowers 9
stickers 9
graphics 9
rogue 9
casual 9
analyzing 9
flaws 9
affirmative 9
lif 9
filmed 9
tenet 9
mcgurk 9
dialogue 9
cour 9
hinge 9
jacksonreuters 9
intruder 9
scrambled 9
smartphones 9
speakership 9
dismantle 9
offset 9
bolling 9
japanese 9
racebased 9
mohammad 9
vanity 9
##member 9
useful 9
katy 9
dwight 9
epajim 9
gavel 9
napolitano 9
winding 9
cuyahoga 9
encryption 9
pas 9
hewlettpackard 9
jews 9
exemptions 9
burger 9
fading 9
finalists 9
hostages 9
blaze 9
widening 9
stumping 9
tightening 9
washingtonpostcom 9
conway 9
lure 9
phony 9
symposiu 9
executed 9
formation 9
isolated 9
fullthroated 9
machinists 9
bingo 9
apologizing 9
classroom 9
devastated 9
persian 9
woos 9
naked 9
annapolis 9
sloan 9
grande 9
bailouts 9
modernize 9
palmer 9
crane 9
cfr 9
motor 9
tap 9
chairmen 9
boot 9
adoption 9
shipping 9
lance 9
thensen 8
grahams 8
populations 8
absolute 8
caitlyn 8
concedes 8
discipline 8
kohl 8
paychecks 8
quartet 8
complicates 8
emotion 8
inconsistent 8
harvey 8
tightened 8
hashtag 8
assemblyman 8
rinaldireuters 8
restoring 8
antidote 8
sealed 8
beware 8
paso 8
displays 8
hugh 8
condolences 8
flooded 8
span 8
embarked 8
fifteen 8
realized 8
robot 8
glasses 8
chilly 8
repeats 8
snowdens 8
abusing 8
appreciate 8
renee 8
footsteps 8
misguided 8
hank 8
ol 8
congratulate 8
isil 8
mcfadden 8
monitors 8
bullish 8
roadblocks 8
adolf 8
ducey 8
fines 8
arctic 8
verbal 8
indianas 8
eyepopping 8
registry 8
gridlocked 8
shriver 8
nuts 8
phenomenon 8
financing 8
unfolded 8
intriguing 8
injection 8
photoorlin 8
compassionate 8
costume 8
#year 8
jaunt 8
tent 8
merry 8
balloons 8
refuge 8
threeterm 8
stag 8
whoops 8
intrigue 8
hoodie 8
strengthening 8
behindthescenes 8
inaction 8
angst 8
jordanian 8
info 8
imf 8
strain 8
footing 8
hurricanes 8
orlin 8
railed 8
casualty 8
expressions 8
governance 8
onslaught 8
sacred 8
golfing 8
researcher 8
homophobic 8
tiffany 8
toa 8
couch 8
lifts 8
gitmo 8
intractable 8
spiked 8
nouri 8
corridor 8
marrying 8
cue 8
epic 8
cafe 8
reutersmike 8
prostate 8
medvedev 8
assessments 8
lebanese 8
frustrating 8
reformer 8
lameduck 8
riedel 8
patience 8
alec 8
frankly 8
entertaining 8
colors 8
meetandgreet 8
borrowed 8
disturbing 8
depart 8
vaccination 8
schauer 8
boast 8
rethink 8
janice 8
prayers 8
departmen 8
cheat 8
oneliners 8
freed 8
grass 8
inroads 8
uptick 8
employing 8
negotiator 8
suu 8
wome 8
bungled 8
lighting 8
jacobs 8
mustread 8
relentless 8
partybacked 8
aipac 8
wrestling 8
fold 8
ambition 8
kristi 8
senegal 8
confrontational 8
hammering 8
roundly 8
automated 8
yellow 8
decry 8
republicanbacked 8
organizer 8
reshuffling 8
felons 8
angling 8
madonna 8
guangcheng 8
cochrans 8
protested 8
##page 8
schumers 8
unfavorably 8
bowling 8
revised 8
daylong 8
chao 8
prominently 8
berger 8
photocliff 8
ai 8
ar 8
cpi 8
werfel 8
positioning 8
rampant 8
midwestern 8
jeffersonjackson 8
ses 8
relevance 8
wilking 8
bo 8
overland 8
swirl 8
dislike 8
lef 8
cheered 8
frequency 8
malpractice 8
yousafzai 8
historians 8
malcolm 8
cw 8
rips 8
loeb 8
booed 8
blanket 8
gerry 8
lonegan 8
chooses 8
permits 8
il 8
homeowners 8
exhibition 8
kennedys 8
di 8
triumphed 8
deputies 8
packages 8
cop 8
negotiation 8
norwegian 8
disadvantage 8
lapses 8
herring 8
diner 8
dined 8
responders 8
lending 8
bullock 8
reacting 8
broadwell 8
essence 8
rsd 8
unmarried 8
salem 8
splitting 8
infamous 8
exclude 8
staunch 8
bickering 8
cemented 8
epicenter 8
fischer 8
electable 8
completion 8
yearlong 8
daines 8
hypocritical 8
scaledback 8
revamped 8
evenly 8
gu 8
gm 8
underscore 8
spelling 8
sands 8
classaction 8
demise 8
freespeech 8
baptist 8
sole 8
precious 8
senatepassed 8
celebrations 8
wilmore 8
ingraham 8
headway 8
academics 8
mistress 8
comply 8
richest 8
ia 8
ops 8
dolezal 8
transfers 8
skin 8
landrieus 8
normalize 8
matchups 8
honesty 8
imprint 8
dipped 8
christina 8
joan 8
leaker 8
controlling 8
purchased 8
afghanista 8
freedoms 8
luke 8
myriad 8
sexuality 8
cents 8
monroe 8
boren 8
byrne 8
netanyahus 8
richardsafpgetty 8
le 8
scotus 8
absurd 8
pouring 8
portray 8
creators 8
conferenc 8
memphis 8
ovation 8
seamus 8
hypocrisy 8
fade 8
wheel 8
bees 8
lesser 8
ramifications 8
technological 8
espionage 8
alarmed 8
reardon 8
ne 8
parma 8
shelley 8
criteria 8
unproductive 8
bleak 8
scarborough 8
circulated 8
worcester 8
detour 8
wades 8
stumbled 8
presentation 8
schiliro 8
nuland 8
ter 8
debater 8
methodist 8
hourlong 8
logan 8
gunrunning 8
predator 8
units 8
stressing 8
handwringing 8
rails 8
leans 8
newsletter 8
gradually 8
bryant 8
musician 8
readiness 8
profound 8
discourage 8
subscribe 8
nicki 8
myth 8
reupping 8
volumes 8
marchers 8
reassess 8
baggage 8
thrones 8
ru 8
austi 8
thriller 8
securit 8
storify 8
thereof 8
soo 8
fretting 8
myers 8
sd 8
recordings 8
slashed 8
enable 8
centerpiece 8
intel 8
origins 8
apologize 8
portrayal 8
blockade 8
empower 8
bulger 8
q###a 8
salute 8
satirical 8
bernstein 8
botsfordthe 8
euro 8
partying 8
um 8
barkley 8
soften 8
secretar 8
septembe 8
betty 8
depressing 8
bonds 8
favoring 8
oldfashioned 8
mcclain 8
mastermind 8
triumph 8
millergetty 8
thick 8
minus 8
mckeon 8
calculated 8
sachs 8
unified 8
affiliation 8
havoc 8
fractious 8
exemption 8
obamaas 8
churchill 8
photorick 8
rationale 8
rambling 8
israels 8
installation 8
figuring 8
noah 8
osorioap 8
fairgrounds 8
inclusion 8
lon 8
refocus 8
loose 8
species 8
mcdonalds 8
hayden 8
assaulted 8
statistically 8
antiromney 8
distinguish 8
senelect 8
somali 8
outright 8
rewriting 8
cariotithe 8
fatigue 8
advocated 8
outer 8
humiliating 8
dreamers 8
thumb 8
cyberattacks 8
generating 8
decried 8
presidenc 8
enlisted 8
mead 8
bone 8
sounding 8
bauer 8
shoulder 8
unnecessary 8
maneuvering 8
warehouse 8
adds 8
dude 8
condemning 8
mar 8
schwartz 8
murky 8
allison 8
friedman 8
harbinger 8
fueling 8
grip 8
erase 8
smear 8
references 8
conundrum 8
jackie 8
rican 8
drake 8
hebdo 8
sba 8
override 8
lbj 8
asiapacific 8
foreigners 8
moderating 8
parting 8
kagan 8
prostitute 8
theyll 8
statesman 8
appointee 8
objects 8
utahs 8
narendra 8
conrad 8
accessible 8
ideals 8
playoff 8
recounts 8
davidsonthe 8
antiimmigrant 8
shadows 8
affiliate 8
rant 8
exwife 8
sage 8
fluid 8
wisconsins 8
thumbs 8
judy 8
conquer 8
execute 8
mapping 8
appealed 8
outraises 8
rent 8
clearer 8
voisinthe 8
halfway 8
kills 8
furniture 8
starkly 8
supermajority 8
moulton 8
abbey 8
marcus 8
debacle 8
duchess 8
liveblog 8
bushes 8
sarkozy 8
liabilities 8
dublin 8
moody 8
commanders 8
delta 8
kathryn 8
vigil 8
posture 8
lastditch 8
solisap 8
sid 8
contending 8
wron 8
cracking 8
mumbai 8
checkpoints 8
immigratio 8
postdebate 8
hotline 8
stymied 8
mailed 8
teaming 8
squeeze 8
hacker 8
weiland 8
accomplishment 8
floridas 8
undercut 8
touches 8
clea 8
parallels 8
matte 8
twain 8
landfall 8
yards 8
peopl 8
downsizing 8
formula 8
rumsfeld 8
risen 8
bestselling 8
borrow 8
spare 8
renewable 8
stranger 8
reuterskevin 8
acquittal 8
jabin 8
vulnerabilities 8
scottish 8
devil 8
upstart 8
triple 8
stack 8
blackburn 8
scrum 8
proliferation 8
pour 8
ambassadorships 8
produces 8
repercussions 8
demonstrating 8
enlist 8
youll 8
explosive 8
combine 8
height 8
foray 8
bailing 8
angrily 8
maricopa 8
tackled 8
muscatine 8
lerners 8
stint 8
wooing 8
pressler 8
legalizes 8
patriotic 8
bowles 8
bradlee 8
generational 8
premier 8
impromptu 8
ceremonial 8
perils 8
redux 8
postpolitics 8
balancing 8
rude 8
ego 8
demographics 8
earliest 8
revolutionary 8
liaison 8
animated 8
fiancee 8
translated 8
nevad 8
drag 8
barbecue 8
stiff 8
felon 8
popped 8
cruise 8
masses 8
mat 8
playlist 8
comity 8
scrambles 8
littleton 8
latterday 8
offenses 8
dioxide 8
misunderstanding 8
convenience 8
photopaul 8
deposition 8
honey 8
grade 8
reassigned 8
congressmans 8
smoked 8
switching 8
vista 8
dip 8
tokyo 8
undoubtedly 8
tracy 8
certification 8
lauded 8
pebble 8
pal 8
pan 8
railroad 8
laughing 8
retailers 8
overly 8
conducting 8
pueblo 8
photoandrew 8
relation 8
legislatio 8
kennebunkport 8
breached 8
populism 8
anthem 8
dar 8
franks 8
negro 8
capita 8
capito 8
upbeat 8
convey 8
bigname 8
wealthier 8
editing 8
carolinas 8
rneb 8
philosophical 8
centered 8
warmup 8
classes 8
explosives 8
frontrunners 8
temptation 8
entrepreneur 8
coastal 8
versions 8
leonard 8
levy 8
suzanne 8
surviving 8
bizarre 8
samples 8
slice 8
renounce 8
factcheck 8
christianity 8
sony 8
salmonella 8
schieffer 8
stemming 8
cigarettes 8
pitted 8
exploded 8
albeit 8
ski 8
civility 8
ethnicity 8
completing 8
rwash 8
noncitizens 8
tag 8
tan 8
klain 8
dent 8
operational 8
addres 8
verizon 8
readies 8
contradictory 8
offduty 7
arbogastap 7
ahmed 7
regulator 7
erika 7
climbed 7
democracies 7
reutersrick 7
explosions 7
reallife 7
honduran 7
troll 7
warriors 7
reuterslarry 7
motives 7
edged 7
postas 7
lively 7
natalie 7
tricks 7
rs 7
quicken 7
testament 7
heterosexual 7
occupation 7
wraps 7
moderation 7
suffolk 7
respite 7
stabenow 7
ladens 7
gases 7
heinrich 7
preemptive 7
guessing 7
damning 7
falsehoods 7
maker 7
billboards 7
rode 7
fundamentally 7
sergeant 7
shrinks 7
ponders 7
placement 7
brea 7
mustache 7
rapper 7
midland 7
shotgun 7
wes 7
fugate 7
swimming 7
tease 7
feeds 7
certified 7
phoeni 7
deliberative 7
gears 7
selfidentified 7
toni 7
client 7
similarities 7
shout 7
insensitive 7
peek 7
maximum 7
expertise 7
wonkblog 7
dissatisfied 7
chin 7
cashstrapped 7
bugs 7
brunt 7
charismatic 7
assemble 7
smuggling 7
onestop 7
rouhani 7
welcoming 7
ass 7
brightest 7
abdullah 7
boils 7
spray 7
servicemembers 7
israelis 7
confrontations 7
operated 7
erased 7
shoulders 7
###m 7
ohioans 7
moderated 7
gingrey 7
unrelated 7
enhance 7
myanmar 7
senatorelect 7
schmidt 7
lofty 7
hallway 7
misusing 7
palace 7
recordkeeping 7
solemn 7
competitors 7
monumental 7
reese 7
boasted 7
elderly 7
holly 7
iraqs 7
advised 7
parenthoo 7
abuzz 7
equip 7
setbacks 7
narrator 7
patdown 7
pockets 7
skilled 7
stubborn 7
homicide 7
repeating 7
resurfacing 7
evaluation 7
humble 7
valentine 7
mammoth 7
spikes 7
rcolo 7
grounded 7
rundown 7
antipoverty 7
photorichard 7
intensifying 7
portraying 7
fitch 7
literary 7
selfdescribed 7
bail 7
packing 7
butler 7
prizes 7
israelipalestinian 7
minchillo 7
sweden 7
traitor 7
michaud 7
fixes 7
sorrow 7
arrangements 7
moniker 7
commentators 7
kardashian 7
questio 7
warplanes 7
helber 7
supplies 7
distributing 7
####ers 7
philanthropic 7
salvage 7
upside 7
soda 7
fiction 7
thoroughly 7
thorough 7
derek 7
sharpens 7
hopefully 7
discovery 7
krugman 7
rumor 7
brutality 7
vigorously 7
remarked 7
roh 7
bribery 7
athens 7
monthlong 7
farmer 7
sevenfigure 7
troy 7
cautionary 7
slashing 7
voluntary 7
surfaced 7
harshly 7
pollin 7
slaughter 7
piracy 7
govloop 7
pulpit 7
horses 7
emmanuel 7
bout 7
bolstering 7
hydraulic 7
stumped 7
raddatz 7
startling 7
indefinitely 7
earnings 7
fertilizer 7
ashton 7
itll 7
shades 7
timetable 7
plaguing 7
collectively 7
clif 7
utter 7
harmed 7
tactical 7
slave 7
smalltown 7
succession 7
officia 7
famed 7
diagram 7
quips 7
wine 7
restriction 7
syste 7
deadliest 7
predictable 7
oceanic 7
pirate 7
feuding 7
plight 7
collections 7
tribes 7
bluebloomberg 7
reorganization 7
threemonth 7
mourn 7
subway 7
valued 7
elephant 7
octobe 7
buren 7
rooting 7
gilmore 7
recommends 7
compliance 7
stated 7
wrench 7
skipped 7
darling 7
appreciation 7
remembers 7
plac 7
unequal 7
ovations 7
owed 7
comprise 7
relaxed 7
armstrong 7
codes 7
robots 7
sawyer 7
aspiring 7
harrisburg 7
soar 7
thirdquarter 7
asylum 7
costco 7
epamichael 7
planted 7
suppor 7
cu 7
quotas 7
expiration 7
transport 7
firsttime 7
annette 7
mugshot 7
bearing 7
meetin 7
neal 7
glance 7
ther 7
forty 7
strangers 7
disagreements 7
solely 7
vigorous 7
du 7
transformed 7
capt 7
theirs 7
balances 7
weakened 7
polite 7
newshour 7
nerve 7
cola 7
servant 7
es 7
er 7
emilys 7
tackling 7
shortages 7
mentally 7
ohios 7
stealth 7
conscience 7
witnessed 7
breitbart 7
fe 7
buono 7
asa 7
texans 7
sacrificed 7
notoriously 7
maintenance 7
wartorn 7
distanced 7
strife 7
headtohead 7
gi 7
iframes 7
baron 7
usrussia 7
escaped 7
boasting 7
morton 7
steppedup 7
bed 7
exhibit 7
lightly 7
unchanged 7
tshirts 7
werent 7
evident 7
correctly 7
penchant 7
telemundo 7
nati 7
incomes 7
hr 7
ho 7
ha 7
fronts 7
flashpoint 7
clothes 7
spokane 7
cindy 7
lucy 7
securityclearance 7
newport 7
ie 7
bottles 7
beirut 7
asma 7
designer 7
cameronreuters 7
touching 7
interference 7
exotic 7
fills 7
ferns 7
girlfriend 7
hybrid 7
obsessed 7
christi 7
daunting 7
pens 7
pathetic 7
reunion 7
assails 7
janay 7
prowess 7
restart 7
floats 7
recycling 7
assignment 7
aggregate 7
merkley 7
inching 7
grave 7
rejection 7
lr 7
confirmations 7
takeaway 7
implementing 7
atmospheric 7
underlying 7
faceoffs 7
worthy 7
mentioning 7
softened 7
gon 7
ponzi 7
peers 7
sunglasses 7
bachman 7
misspoke 7
clubs 7
lags 7
achieving 7
pseudonym 7
kentuck 7
profit 7
mater 7
cortez 7
begging 7
detect 7
deported 7
applaud 7
womans 7
buddies 7
prolific 7
amber 7
hazards 7
cbp 7
hightech 7
screens 7
texts 7
marketplaces 7
collar 7
diazbalart 7
ranchers 7
ramped 7
volunteering 7
antonovafpgetty 7
boosts 7
nostalgic 7
studios 7
disarray 7
rasmussen 7
infectious 7
sonmez 7
headquarter 7
dorothy 7
narrowed 7
align 7
radiation 7
helpful 7
perks 7
boardwalk 7
adjustments 7
mccarthys 7
fossil 7
photomatt 7
reserving 7
lateterm 7
lumpur 7
dummy 7
twomonth 7
subsidy 7
creek 7
contributing 7
magazines 7
handily 7
glacier 7
spiritual 7
experiments 7
disrespect 7
bumpy 7
depressed 7
energize 7
lauper 7
dday 7
concede 7
booster 7
throwback 7
ledbetter 7
elena 7
pearl 7
foundations 7
imminent 7
roemer 7
ukrain 7
slowdown 7
hewitt 7
hamid 7
cru 7
frosty 7
duran 7
buchanan 7
pals 7
inches 7
percen 7
reopened 7
eva 7
punch 7
fits 7
lenders 7
hilarious 7
lily 7
hypocrite 7
travis 7
strides 7
ravens 7
restructure 7
daylight 7
joyce 7
davos 7
triumphant 7
trials 7
kobach 7
payback 7
giustra 7
envisions 7
applies 7
bunny 7
virginias 7
##nation 7
wan 7
anew 7
shuttering 7
ezra 7
cat 7
clothing 7
instate 7
cart 7
concrete 7
mullah 7
fifty 7
ellmers 7
saints 7
commanderinchief 7
reportget 7
soulsearching 7
spectacular 7
inevitability 7
rousing 7
toys 7
mounted 7
offended 7
leftwing 7
trusts 7
labs 7
wonderful 7
verrilli 7
sessio 7
storylines 7
docket 7
quayle 7
brokered 7
crosses 7
twitte 7
unlawful 7
cartoonist 7
deploy 7
snapshot 7
credited 7
quadrennial 7
processes 7
unconventional 7
diagnosis 7
pardon 7
pragmatism 7
aligned 7
marital 7
ditch 7
dot 7
stoking 7
blitzer 7
supremacist 7
chenault 7
bella 7
policie 7
amounted 7
surrender 7
depend 7
makeup 7
classrooms 7
spanning 7
undermined 7
goto 7
lawenforcement 7
warsaw 7
roster 7
woodrow 7
elevate 7
##month 7
registering 7
digest 7
parental 7
brinksmanship 7
newlyminted 7
climbing 7
pile 7
jake 7
matching 7
sixday 7
deez 7
withheld 7
splash 7
oxford 7
complain 7
copper 7
mishandled 7
lease 7
talkshow 7
slips 7
tennant 7
ptsd 7
publics 7
goode 7
framed 7
excuses 7
decrease 7
latham 7
messag 7
stranded 7
industrialist 7
satan 7
richards 7
darker 7
abolish 7
garrett 7
ripped 7
ridge 7
ricinlaced 7
vegetables 7
rcb 7
obsessive 7
mackinac 7
mladen 7
install 7
compelling 7
potatoes 7
lauer 7
correctional 7
cochairs 7
ritual 7
rang 7
detection 7
jerseys 7
hung 7
oneman 7
obtaining 7
submitting 7
discharge 7
quash 7
boasts 7
iphone 7
sheds 7
kyl 7
cops 7
phillips 7
multimillion 7
connections 7
apologies 7
groundhog 7
standup 7
postconvention 7
campaignfinance 7
brandonassociated 7
firebrand 7
nd 7
reduces 7
kamen 7
protocol 7
compel 7
ladders 7
crush 7
glad 7
influenced 7
langley 7
boycotting 7
roman 7
barricade 7
buckeye 7
examiners 7
breastfeeding 7
reinstate 7
nairobi 7
clown 7
unused 7
dismal 7
pres 7
edging 7
levi 7
faux 7
##m 7
outspent 7
carrie 7
ghanbariap 7
twominute 7
stirring 7
mutual 7
unseating 7
interrupting 7
defaulting 7
shall 7
shale 7
heckler 7
downgrade 7
billing 7
harmony 7
succeeding 7
summoned 7
niraj 7
underestimated 7
rerun 7
elon 7
revamping 7
consolidation 7
immune 7
coleman 7
smarter 7
maintaining 7
shoppers 7
structures 7
grammys 7
rogen 7
boat 7
observe 7
twists 7
scholarship 7
vague 7
mica 7
regimes 7
talbotap 7
scranton 7
rourke 7
murkowski 7
threeweek 7
creator 7
snail 7
cochairman 7
garbage 7
custom 7
boomers 7
gossip 7
manipulated 7
respectively 7
dealings 7
destroying 7
almaliki 7
climatechange 7
foodstamp 7
steering 7
courted 7
appealing 7
atmosphere 7
etc 7
incest 7
powered 7
homosexual 7
conflicting 7
perciasepe 7
bilateral 7
phones 7
cnnorc 7
dsouza 7
castle 7
comic 7
rated 7
tackles 7
ebay 7
functioning 7
yours 7
pursuing 7
johanns 7
nih 7
deadlocked 7
marker 7
michel 7
scaling 7
lennihanap 7
thaw 7
sierra 7
watsonafpgetty 7
strained 7
sebeliuss 7
unwelcome 7
restored 7
carper 7
carpet 7
iconn 7
paradise 7
tussle 7
poroshenko 7
oldschool 7
scotland 7
liu 7
fleet 7
bonus 7
defied 7
hanover 7
practically 7
volatile 7
mirage 7
halfcentury 7
pritzker 7
tancredo 7
wellness 7
repelect 7
obstacles 7
sitdown 7
staked 7
artists 7
utility 7
futur 7
multimilliondollar 7
maverick 7
statehood 7
tapes 7
taped 7
millett 7
contend 7
peculiar 7
hardworking 7
itinerary 7
smokey 7
efficient 7
commuters 7
amazingly 7
atrocities 7
pros 7
antihillary 7
withdrawals 7
sour 7
bites 7
seizing 7
bujumbura 7
ministry 7
devaney 7
spectacle 7
soliciting 7
yield 7
remake 7
stretches 7
mara 7
profiles 7
secrecy 7
ortiz 7
cleanup 7
fedworker 7
diaz 7
furor 7
salaam 7
muriel 7
commits 7
sizable 7
sammies 7
pelley 7
consume 7
prosecuting 7
headaches 7
lens 7
vicious 7
responsibilities 7
stances 7
dam 7
potomac 7
peppered 7
photographs 7
occupant 7
demaio 7
kuala 7
punchline 7
childrens 7
rauner 7
glory 7
louder 7
forums 7
outsized 7
perception 7
corrections 7
wildly 7
abandoning 7
mahmoud 7
heartland 7
#chambers 7
muster 7
trig 7
constructed 7
artwork 7
culminating 7
contracted 7
snubbed 7
heartbreaking 7
rethinking 7
cautioned 7
lighter 7
summe 7
gavin 7
erskine 7
oddly 7
bbg 7
pinterest 7
circumstance 7
mooregetty 7
hip 7
cartoons 7
overtures 7
ric 7
castigated 7
capitals 7
unstable 7
caller 7
lafayette 7
commissions 7
duffy 7
tar 7
trai 7
marijuan 7
dictionary 7
adrian 7
powerhouse 7
rosie 7
merits 7
mexicans 7
barrow 7
locate 7
dependency 7
denve 7
wooden 6
cooking 6
burial 6
breed 6
positively 6
diminishing 6
xvi 6
southeastern 6
elaborate 6
boiled 6
qualifications 6
issas 6
greatness 6
humbled 6
sunset 6
outage 6
chait 6
shirts 6
skirmish 6
friction 6
tilting 6
nothin 6
competitiveness 6
ecigarettes 6
superintendent 6
teleworking 6
retains 6
hopkins 6
yoga 6
norm 6
smiling 6
ernie 6
overwhelmed 6
tanker 6
atheists 6
watertown 6
eleven 6
magana 6
senneap 6
insight 6
directs 6
thieves 6
muchneeded 6
stomach 6
dishes 6
entities 6
antagonist 6
roiled 6
zignal 6
tick 6
emmy 6
camden 6
tossed 6
stinks 6
petro 6
petri 6
reynoldsepa 6
housepassed 6
derided 6
valor 6
leadup 6
raisin 6
unspecified 6
culminated 6
shields 6
pronouncements 6
mclean 6
blowback 6
lcb 6
eroded 6
revisiting 6
haslam 6
boehne 6
dynasties 6
teaches 6
occur 6
opts 6
correspondence 6
non 6
undermining 6
outcry 6
flipping 6
importantly 6
complications 6
madness 6
jeans 6
exploit 6
emmertafpgetty 6
huntsmans 6
blackberry 6
ineligible 6
hamper 6
inspires 6
jihadi 6
unlucky 6
reining 6
locals 6
toptwo 6
instructing 6
makeshift 6
writein 6
decembe 6
staterun 6
application 6
radicals 6
patents 6
certainty 6
enforced 6
battled 6
waxman 6
controller 6
autism 6
intersection 6
highspeed 6
megachurch 6
ultrasound 6
gopled 6
determination 6
steinem 6
undisputed 6
nbcnewscom 6
becerra 6
hezbollah 6
confidently 6
tossup 6
quarterback 6
hubs 6
quarters 6
ears 6
weare 6
cousin 6
downplay 6
servic 6
chilean 6
communists 6
washingtonbased 6
factions 6
faction 6
budded 6
jacket 6
bigdollar 6
relieve 6
teenage 6
soontobe 6
massachusett 6
holyfield 6
dwis 6
pastry 6
administers 6
playoffs 6
streaming 6
fastfood 6
falsified 6
flavor 6
koskinen 6
forgo 6
unabashed 6
clinch 6
paterson 6
neverending 6
countering 6
politicize 6
enforcing 6
reflections 6
poles 6
everythin 6
timber 6
cub 6
austria 6
bankers 6
elise 6
longdelayed 6
che 6
prized 6
rehabilitation 6
photomike 6
frayed 6
popping 6
uganda 6
excesses 6
rust 6
reutersbrendan 6
photojae 6
periods 6
reiterating 6
harriet 6
nail 6
pounce 6
smokers 6
sarcasm 6
seminar 6
grandmother 6
mug 6
fivepoint 6
nike 6
peaks 6
renamed 6
gayrights 6
excerpt 6
newcomer 6
maureen 6
clarification 6
campaignreads 6
yarnell 6
anda 6
plug 6
africanamericans 6
animation 6
surf 6
latel 6
cheap 6
studentloan 6
manila 6
grasp 6
creeping 6
roo 6
nides 6
exited 6
guacamole 6
florence 6
impersonation 6
prejudice 6
blaise 6
govbeat 6
solo 6
citys 6
distress 6
wilkingreuters 6
discriminatory 6
separately 6
johns 6
belonged 6
authored 6
audacious 6
unavailable 6
unruly 6
prohibited 6
provoke 6
stewardship 6
sanctioned 6
smallbusiness 6
ultrasounds 6
yoder 6
feat 6
litigation 6
wonders 6
acronym 6
homestate 6
cottons 6
hardfought 6
halligan 6
borrowers 6
handguns 6
shocker 6
misdemeanor 6
vary 6
township 6
ian 6
legs 6
juneau 6
mend 6
sniping 6
photosteve 6
spearheading 6
fascination 6
proven 6
avalanche 6
solved 6
tightly 6
amazoncom 6
visual 6
agendas 6
rounding 6
bragg 6
potter 6
candidly 6
forecasters 6
jpmorgan 6
espn 6
rages 6
teens 6
supermarket 6
ante 6
shortlist 6
tubman 6
juggernaut 6
ace 6
antiquated 6
ae 6
reuterslucas 6
smartest 6
notre 6
mixing 6
misuse 6
iftar 6
predebate 6
philanthropy 6
determines 6
instituted 6
migration 6
muted 6
citations 6
epithet 6
focal 6
regulating 6
dreier 6
irresistible 6
ba 6
wrongly 6
tulsi 6
stor 6
interactions 6
stimulate 6
blown 6
norton 6
rotunda 6
competence 6
softens 6
rwisc 6
drum 6
cr 6
nbcmarist 6
maui 6
ripe 6
gwen 6
residential 6
accelerating 6
strode 6
funnel 6
relentlessly 6
reign 6
consent 6
sixfigure 6
ababa 6
dj 6
kyle 6
presiding 6
tha 6
amendola 6
nakamura 6
satisfy 6
hoops 6
carroll 6
foreclosure 6
sheep 6
staged 6
pray 6
characterization 6
wounds 6
countless 6
storming 6
mudslide 6
dinesh 6
genetic 6
faulted 6
smithap 6
solicit 6
frederic 6
erode 6
hurry 6
nina 6
ratified 6
fool 6
dirt 6
elder 6
fearing 6
lejeune 6
hamburgap 6
rielle 6
soured 6
meanwhile 6
poin 6
sacrifices 6
wow 6
outnumber 6
exceeding 6
pounding 6
rug 6
fastgrowing 6
rebuked 6
riyadh 6
standardbearer 6
exclusion 6
publi 6
reboot 6
garcetti 6
busines 6
congo 6
bea 6
staking 6
instance 6
parker 6
parked 6
entity 6
mohammed 6
accuser 6
parnell 6
marsha 6
competent 6
chants 6
energized 6
ushered 6
exploiting 6
overflow 6
mechanics 6
balcony 6
winfrey 6
hempstead 6
cardboard 6
drowned 6
shelters 6
egyptians 6
plurality 6
resisting 6
chilling 6
ix 6
jealous 6
facto 6
tracked 6
keeper 6
hereas 6
reassessing 6
rigid 6
olive 6
pageant 6
burmese 6
texan 6
ventura 6
adele 6
tug 6
overdose 6
wimbledon 6
dated 6
bowie 6
refers 6
dings 6
passports 6
tycoon 6
worklife 6
istanbul 6
barrier 6
cabinetlevel 6
armey 6
pau 6
pleasure 6
finalized 6
mama 6
douglass 6
blogging 6
tender 6
chemistry 6
atomic 6
chanting 6
bestseller 6
jockey 6
alsorans 6
infected 6
bored 6
prevail 6
retweets 6
respectful 6
resurrect 6
henneberger 6
prohibiting 6
resurgent 6
revives 6
harding 6
electronics 6
civics 6
provoked 6
laureate 6
colombian 6
instant 6
freeman 6
martinassociated 6
bragging 6
faithbased 6
europeans 6
sammie 6
resurrected 6
visibly 6
vogel 6
mi 6
mt 6
overstepped 6
stronghold 6
gymnasium 6
combining 6
goo 6
treats 6
bowmer 6
kessler 6
capacity 6
censorship 6
stereotype 6
cafeteria 6
bore 6
varying 6
displaying 6
philippines 6
denounces 6
sharpening 6
granddaughter 6
cutter 6
hub 6
explicitly 6
cycl 6
sampling 6
prerecession 6
booths 6
guided 6
clot 6
quitting 6
curve 6
subjected 6
hailing 6
schoo 6
securitys 6
sustainable 6
contrary 6
condi 6
duo 6
brick 6
belvoir 6
medi 6
flirtation 6
suffers 6
sexy 6
depicted 6
unites 6
illicit 6
franciss 6
jerseyans 6
showdowns 6
disparities 6
landry 6
layer 6
boozman 6
capabilities 6
troubl 6
deporting 6
commented 6
railing 6
thunder 6
unwillingness 6
plunged 6
cente 6
evenin 6
nirvana 6
runner 6
thrilled 6
compaore 6
vaccinations 6
yogurt 6
offyear 6
snag 6
elliott 6
photographers 6
innocent 6
sox 6
accelerate 6
constitutes 6
goahead 6
alley 6
coincide 6
ostensibly 6
mans 6
hel 6
metric 6
lilly 6
industrialists 6
tentatively 6
mustpass 6
contro 6
mcdermid 6
cruised 6
potent 6
shoe 6
forgiveness 6
miliband 6
departures 6
presided 6
holes 6
astronauts 6
tri 6
keene 6
hyde 6
graduating 6
morsi 6
salesman 6
reagans 6
fidel 6
jacobsonap 6
lectern 6
chafees 6
opms 6
longsimmering 6
commemoration 6
ing 6
corey 6
decadesold 6
crunch 6
logs 6
medicine 6
albert 6
assange 6
brag 6
soap 6
fehbp 6
workingclass 6
secondplace 6
gregg 6
lashes 6
restive 6
indicating 6
selfinflicted 6
flank 6
domain 6
happe 6
jolt 6
overruns 6
televisions 6
alcoholic 6
shouts 6
uneasy 6
computerized 6
mischaracterized 6
deborah 6
popes 6
virgini 6
respected 6
offender 6
stinging 6
geopolitical 6
makeorbreak 6
catches 6
donilon 6
colberts 6
militar 6
dame 6
socialism 6
hoax 6
krupaap 6
saturdays 6
nonsense 6
militarily 6
behaving 6
dull 6
physics 6
nomine 6
proromney 6
colonel 6
bluntly 6
potus 6
couric 6
watershed 6
humane 6
mullin 6
hinder 6
eas 6
erin 6
campaigninwaiting 6
rests 6
livingston 6
persist 6
bono 6
meal 6
enables 6
assisting 6
doo 6
doe 6
jurisdiction 6
sai 6
riley 6
chuy 6
moratorium 6
unfortunate 6
disillusioned 6
cliche 6
marshal 6
anthrax 6
russi 6
downplays 6
michigans 6
mas 6
krueger 6
gonzalez 6
hartford 6
bachelet 6
businesswoman 6
legitimacy 6
cyndi 6
workshop 6
##thhour 6
pill 6
ascent 6
decorated 6
crippling 6
eleanor 6
fist 6
overthetop 6
paintings 6
lion 6
champagne 6
dividends 6
unnecessarily 6
raoux 6
sevenyear 6
sociologist 6
timid 6
saluted 6
obliged 6
traficant 6
ricans 6
misdeeds 6
sprung 6
gateway 6
ascension 6
interaction 6
scoop 6
israe 6
alaskas 6
inspiring 6
enhanced 6
starspangled 6
finishes 6
bull 6
eeoc 6
chatting 6
skating 6
parole 6
swearing 6
toe 6
botswana 6
guatemala 6
habit 6
afric 6
trustworthy 6
fury 6
goolsbee 6
vivid 6
hector 6
julius 6
kyi 6
begs 6
crashes 6
terrain 6
operates 6
seniorlevel 6
invocation 6
subsequent 6
radically 6
footprint 6
activeduty 6
ommanneythe 6
flipflopping 6
extremes 6
autopen 6
guam 6
checklist 6
nagging 6
detroi 6
flown 6
vendor 6
complains 6
dunandafpgetty 6
plunge 6
raisins 6
rainy 6
muddled 6
pleas 6
consumption 6
relates 6
mainly 6
affluent 6
oregons 6
inch 6
venetian 6
inadequate 6
frustrate 6
childers 6
lori 6
piling 6
fingers 6
herb 6
unio 6
hop 6
extortion 6
youths 6
telecom 6
hillaryclinton 6
att 6
melissa 6
hampshires 6
irving 6
rushing 6
misled 6
rollins 6
highestprofile 6
ngan 6
gayap 6
clause 6
boyfriend 6
grilling 6
jumper 6
aerial 6
rousseff 6
defection 6
mick 6
walke 6
gripas 6
omalle 6
wagnerap 6
buzzing 6
osce 6
wavering 6
attitude 6
execs 6
ftc 6
stairs 6
riven 6
improves 6
load 6
downton 6
ducks 6
aerospace 6
raging 6
outpaced 6
illustrated 6
mosul 6
reich 6
tunisian 6
fileassociated 6
balls 6
singular 6
accompanies 6
scolds 6
raymond 6
cosponsored 6
slowing 6
simultaneously 6
colleg 6
reces 6
sasheer 6
transforming 6
lag 6
lindsay 6
muffin 6
lousy 6
rewrite 6
californi 6
precarious 6
observed 6
jetting 6
unfold 6
greenhousegas 6
cede 6
properties 6
mtv 6
grabbing 6
falsely 6
paused 6
courtship 6
expedite 6
sugary 6
photojeffrey 6
granholm 6
freyreuters 6
flatly 6
carey 6
republicanleaning 6
external 6
antigovernment 6
squire 6
cats 6
heaven 6
exodus 6
emotions 6
rigged 6
bogeyman 6
trained 6
autographs 6
weekslong 6
towering 6
inspections 6
crosse 6
interact 6
paving 6
min 6
lik 6
natio 6
hobbled 6
deter 6
locherap 6
taiwan 6
ids 6
soared 6
governs 6
fdr 6
cautiously 6
cartel 6
longoria 6
gimmick 6
subsidized 6
kenny 6
thriving 6
umbrella 6
beard 6
bieber 6
thwarted 6
tabs 6
identical 6
buyer 6
murthy 6
stats 6
preparedness 6
lauren 6
taping 6
maraniss 6
pumped 6
westminster 6
ymca 6
defer 6
leaner 6
mailing 6
qualities 6
nicolas 6
cadre 6
mile 6
ticking 6
bartender 6
acceptable 6
soup 6
strikingly 6
pressuring 6
pharmacies 6
redraw 6
spiking 6
entitlements 6
busiest 6
median 6
medias 6
dedicate 6
cluster 6
careers 6
detente 6
megabundler 6
boone 6
sergei 6
forged 6
tattoos 6
stretching 6
prebuttal 6
shark 6
flowed 6
bulls 6
engagements 6
vine 6
marilyn 6
middecember 6
abundantly 6
defamation 6
mailers 6
deathrow 6
tenants 6
aliens 6
semiautomatic 6
amended 6
britney 6
serial 6
dat 6
bromance 6
palestine 6
kentuckys 6
harleydavidson 6
pitting 6
onequarter 6
vent 6
inviting 6
caitlin 6
pig 6
methane 6
edatpost 6
poked 6
snowstorms 6
socialmedia 6
fret 6
mercury 6
voeten 6
frontrunning 6
fridays 6
transporting 6
removes 6
ethiopian 6
downfall 6
branches 6
thenhouse 6
redford 6
strengths 6
quantity 6
expectation 6
ignores 6
captures 6
intact 6
immigrate 6
ige 6
stalwart 6
defuse 6
imported 6
whitecollar 6
handlers 6
sandwich 6
financed 6
regained 6
seasons 6
ari 6
lodged 6
endeavour 6
vigilant 6
statelevel 6
patterson 6
prom 6
ehrlich 6
megadonor 6
engineered 6
cfc 6
hourly 6
automobile 6
inclined 6
rabbit 6
wenigap 6
wwii 6
fortunately 6
underwater 6
transmitted 6
lobbied 6
grits 6
sculpture 6
fiel 6
flirting 6
ebb 6
addis 6
privileges 6
sky 6
slur 6
leased 6
concerts 6
appointing 6
contends 6
revelers 5
grueling 5
dnd 5
therefore 5
morally 5
locker 5
unjust 5
beyer 5
supplied 5
allan 5
passwords 5
distric 5
kremlin 5
committing 5
ceip 5
patch 5
chickfila 5
eighteen 5
flipflops 5
marches 5
academia 5
portrayed 5
elders 5
shipyard 5
flub 5
rieckenfor 5
duel 5
disgrace 5
minaj 5
defaults 5
rahall 5
dwindling 5
locks 5
jonnie 5
jin 5
sorted 5
gunshot 5
rehab 5
politicos 5
mayer 5
knowingly 5
touchy 5
preclearance 5
flipped 5
allowance 5
exsenator 5
moveonorg 5
engages 5
ehrhardtap 5
missouris 5
rover 5
mcsally 5
touchstone 5
puppy 5
omnibus 5
senne 5
warweary 5
retroactive 5
nonviolent 5
resemble 5
symptoms 5
abandons 5
pairs 5
patchwork 5
dismantling 5
guarding 5
singled 5
barrel 5
distraction 5
satire 5
boomlet 5
voa 5
vox 5
radicalization 5
lujan 5
emergence 5
spine 5
alexandra 5
inserting 5
deserved 5
unsafe 5
flashback 5
oxon 5
promotional 5
borde 5
damian 5
bicameral 5
incompetence 5
minchilloap 5
zarif 5
overpaid 5
cecil 5
bamako 5
bret 5
marthas 5
posse 5
commutes 5
ransom 5
diabetes 5
passion 5
posterity 5
lifestyle 5
grayer 5
nonetheless 5
searched 5
gardens 5
roadblock 5
jamaica 5
sweater 5
ploy 5
divorced 5
alienate 5
leftovers 5
illustrate 5
wasted 5
contents 5
convenient 5
hammond 5
stephens 5
flashes 5
gratitude 5
cons 5
disparaged 5
cornell 5
unfounded 5
stumble 5
quartercentury 5
supplement 5
coalesce 5
fracturing 5
chic 5
kurt 5
affirms 5
blink 5
raped 5
brains 5
titans 5
hybrids 5
elvis 5
battleship 5
versa 5
swim 5
fortuno 5
tragedies 5
podcast 5
embedded 5
thoughtful 5
danielle 5
prohibitions 5
renacci 5
intrade 5
differen 5
grey 5
pretending 5
inhouse 5
blasios 5
vests 5
clevelan 5
lips 5
anecdotes 5
benefactor 5
smiley 5
twitters 5
kidnapped 5
manhunt 5
mspb 5
averages 5
separating 5
mcmahon 5
timed 5
earful 5
sancyaassociated 5
photomichael 5
tuned 5
cent 5
riff 5
detain 5
battery 5
objected 5
sweepstakes 5
limitations 5
halfbillion 5
freeforall 5
functions 5
metadata 5
mea 5
jackets 5
barletta 5
garry 5
phillipap 5
worsening 5
observation 5
specialists 5
physicist 5
gsas 5
nailbiter 5
disappear 5
photomandel 5
carte 5
reinforcing 5
prevents 5
stripping 5
goodlatte 5
lakes 5
bon 5
sweating 5
nearest 5
chiesa 5
tucked 5
workload 5
manifesto 5
nutritional 5
queens 5
alarming 5
pegged 5
coverups 5
distracted 5
ny## 5
concussions 5
specialized 5
evade 5
impeached 5
converge 5
restaurants 5
threehour 5
cutout 5
mailbox 5
hearin 5
wehby 5
translate 5
stripped 5
adoring 5
blatter 5
rivers 5
sameday 5
healing 5
niamalika 5
fareed 5
democra 5
nypd 5
varied 5
holde 5
rices 5
eun 5
furiously 5
fourteen 5
thencandidate 5
thayerreuters 5
latourette 5
kosher 5
politicizing 5
reintroduce 5
thense 5
classical 5
preexisting 5
seiu 5
stormbattered 5
bachus 5
powermoves 5
unfunded 5
tj 5
supplemental 5
gadgets 5
overheard 5
pullout 5
largo 5
cements 5
bait 5
haiti 5
angers 5
eleventhhour 5
reiterate 5
anchors 5
legislating 5
veronica 5
wenig 5
commonsense 5
dads 5
departed 5
cherry 5
beheading 5
uncovered 5
unchallenged 5
installing 5
cecile 5
entertain 5
witch 5
sidney 5
trickling 5
stabilize 5
virtues 5
sympathize 5
virgil 5
jobcreation 5
rsquo 5
reinvigorate 5
installed 5
photoelise 5
polish 5
twotime 5
towel 5
googles 5
stereotypes 5
roses 5
barone 5
wreath 5
josephthe 5
escalation 5
searchlight 5
robersonap 5
gpo 5
goodgovernment 5
misstep 5
machinery 5
downballot 5
fulfilling 5
landscapes 5
bombastic 5
peach 5
enoug 5
buffalo 5
windy 5
gripping 5
folk 5
app 5
leonnig 5
autobiography 5
tack 5
glen 5
citizenshi 5
trespassing 5
pipe 5
juror 5
clayton 5
usage 5
abortionrights 5
fourstar 5
talladega 5
resting 5
deli 5
figh 5
hurd 5
herely 5
worldview 5
destined 5
structural 5
dsd 5
dsc 5
devastation 5
endure 5
susie 5
retaining 5
antitrust 5
grove 5
thaddeus 5
istockphoto 5
chill 5
tweaks 5
irss 5
bloody 5
seattl 5
wheelchair 5
applicant 5
festivitie 5
solace 5
pennsylvanias 5
misused 5
prioritie 5
entreaties 5
gellman 5
brow 5
bros 5
workout 5
clad 5
annuitants 5
interpreting 5
installations 5
neglected 5
disliked 5
cling 5
truths 5
bumper 5
checkpoint 5
appalachian 5
shiroap 5
drunk 5
elevated 5
expediting 5
desist 5
ovide 5
bb 5
cultivating 5
codel 5
essay 5
tulsa 5
crisscrossing 5
drill 5
bent 5
tableau 5
seneca 5
loomed 5
journalsentinel 5
tortured 5
torrent 5
latina 5
reignite 5
ignited 5
biker 5
cnntea 5
allbutcertain 5
pounced 5
trajectory 5
hubbard 5
dixville 5
fedex 5
sander 5
function 5
evacuation 5
bernanke 5
hyperpartisan 5
greer 5
thew 5
sliding 5
airs 5
resemblance 5
dn 5
flexible 5
thi 5
democraticleaning 5
graduated 5
sagging 5
veiled 5
tesla 5
sullivanap 5
ethic 5
<PAD> 5
norway 5
hale 5
wonk 5
inevitably 5
dolan 5
lunches 5
foothold 5
underfunded 5
blacklivesmatter 5
post### 5
seekers 5
willard 5
theilerreuters 5
coworkers 5
systemic 5
fruit 5
rear 5
eddie 5
researching 5
loughner 5
blanche 5
bestworst 5
spearhead 5
banish 5
skit 5
vern 5
colored 5
hogs 5
hardware 5
ebenhack 5
fi 5
fl 5
bass 5
tenets 5
knots 5
maurice 5
undergoes 5
liberian 5
packs 5
transcripts 5
theology 5
cgi 5
highpowered 5
hipsters 5
heath 5
capturing 5
dilute 5
manipulate 5
strapped 5
tennis 5
poetry 5
militarization 5
upward 5
ricks 5
diminished 5
keen 5
yong 5
fuzzy 5
updating 5
huelskamp 5
shrunk 5
spared 5
markwayne 5
rightly 5
huntsville 5
expenditure 5
filibustering 5
renegade 5
choked 5
hq 5
donothing 5
suggestive 5
miraclegro 5
londo 5
loyalists 5
nicklaus 5
reprieve 5
judged 5
sorta 5
depicts 5
rearview 5
separated 5
fashioned 5
ribbons 5
primed 5
pregnancies 5
sympathetic 5
balks 5
savior 5
halfstaff 5
pure 5
pins 5
grou 5
framing 5
consolidating 5
rothman 5
underwear 5
paved 5
impersonators 5
teflon 5
tallies 5
tallied 5
histories 5
unethical 5
mid####s 5
antiterrorism 5
drain 5
parlor 5
haass 5
broker 5
metaphors 5
rwanda 5
hewlett 5
threeway 5
recast 5
coulter 5
construct 5
depths 5
permission 5
echoing 5
adversaries 5
homemade 5
aung 5
navajo 5
peggy 5
drank 5
resolutions 5
assailed 5
indepth 5
solidify 5
laurie 5
whitey 5
li 5
lu 5
olivers 5
allmale 5
vulgar 5
opiate 5
shanksville 5
wi 5
gingric 5
attributed 5
pravda 5
simpler 5
firefighter 5
mcalester 5
wisc 5
traumatic 5
variation 5
shrank 5
baked 5
hats 5
weddings 5
casualties 5
scion 5
bennet 5
humanresources 5
nowformer 5
sober 5
luntz 5
fehb 5
reorganize 5
interviewing 5
merging 5
faltering 5
councilman 5
humanity 5
achenbach 5
sepp 5
accommodate 5
heap 5
bide 5
trailers 5
contemplating 5
northglenn 5
journalistic 5
intercepted 5
culpa 5
marble 5
candice 5
laughter 5
swedish 5
speake 5
motorists 5
refund 5
rya 5
worship 5
hawaiis 5
looting 5
armored 5
friess 5
datasharing 5
brownwarren 5
runaway 5
clos 5
standstill 5
highcapacity 5
cowboys 5
shirtless 5
strictly 5
applying 5
idiot 5
dismayed 5
largescale 5
lowlevel 5
tsas 5
speechless 5
imploring 5
bland 5
needle 5
reverberations 5
dug 5
woke 5
temperament 5
tends 5
mingled 5
cozy 5
desired 5
gallu 5
martins 5
prodemocracy 5
ships 5
magnet 5
ramadan 5
escalate 5
rout 5
jacobson 5
alienating 5
tapper 5
botanacare 5
statistical 5
diverge 5
budgeting 5
intimidating 5
perspectives 5
fundraises 5
champ 5
progra 5
infants 5
humbling 5
donohue 5
pioneering 5
advantages 5
beneficiaries 5
balderas 5
owens 5
californians 5
canaveral 5
rudolph 5
hasten 5
pressured 5
fahrenthold 5
anticipating 5
lucan 5
shaken 5
palmetto 5
benefiting 5
ramadi 5
miranda 5
spate 5
brilliant 5
claus 5
hom 5
torn 5
aviv 5
suspicion 5
thereby 5
fooled 5
import 5
resource 5
hinges 5
schuster 5
virginians 5
greenap 5
barbed 5
internship 5
biases 5
catchup 5
behavioral 5
debris 5
pesky 5
bestknown 5
murdering 5
schweich 5
speculate 5
quickl 5
elective 5
contingency 5
rooted 5
hinckley 5
introduction 5
litany 5
warmly 5
endlessly 5
gilligan 5
jeopardize 5
reliance 5
rayburn 5
backfire 5
spirits 5
unapologetic 5
tangible 5
allegiance 5
packers 5
redistribution 5
courtney 5
sorting 5
secondquarter 5
oneterm 5
pali 5
palo 5
staple 5
fixistas 5
ugandan 5
softer 5
precinct 5
northwestern 5
parkway 5
coffin 5
mysteries 5
decad 5
strateg 5
hollis 5
kirkpatrickgetty 5
gentle 5
accuracy 5
meningitis 5
mockingbird 5
emotionally 5
adversary 5
pregame 5
cias 5
pedro 5
rileyap 5
decoding 5
browsing 5
hindsight 5
retort 5
lamborn 5
costello 5
louie 5
texass 5
grandchildren 5
caucuse 5
greuel 5
realm 5
maiden 5
adequate 5
youtub 5
musk 5
miserable 5
failings 5
liberation 5
expelled 5
rnm 5
float 5
bound 5
liljenquist 5
mysterious 5
medication 5
computing 5
nudity 5
incursion 5
governed 5
rainier 5
rhythm 5
roaring 5
homecoming 5
territories 5
cas 5
nonstop 5
accelerated 5
wongvia 5
sexiest 5
rake 5
sperling 5
interpretation 5
bishops 5
thefix 5
physically 5
newfound 5
notoriety 5
racketeering 5
moodys 5
proponent 5
receptive 5
cookies 5
colossal 5
supplyside 5
hongjireuters 5
invalidate 5
instrumental 5
heineman 5
alyssa 5
fundamentalism 5
occasions 5
wolverine 5
arbitration 5
zezima 5
kal 5
hardened 5
disapproving 5
embarking 5
boxers 5
fanjul 5
rope 5
lingers 5
debra 5
heed 5
fullpage 5
misbehavior 5
dips 5
fishy 5
hardhit 5
frances 5
refrain 5
reservation 5
fayetteville 5
infographic 5
excluded 5
suite 5
overseen 5
halfmillion 5
reestablish 5
affleck 5
laundry 5
practitioners 5
paves 5
manipulation 5
anaheim 5
mileage 5
databases 5
quarantine 5
processed 5
humans 5
competitor 5
tweeters 5
articulate 5
finalizing 5
storied 5
stumps 5
talkin 5
foreignpolicy 5
calculate 5
dukes 5
fastestrising 5
wreck 5
dri 5
decries 5
hansen 5
programming 5
becky 5
waterfront 5
discredit 5
cooperstown 5
tales 5
voyage 5
peta 5
simplest 5
swoops 5
offerings 5
loaded 5
riled 5
replicate 5
belly 5
differing 5
dignity 5
empowerment 5
discriminate 5
potato 5
affirmed 5
eldest 5
reconvene 5
hotels 5
slog 5
deposit 5
fledgling 5
romneycare 5
greenberg 5
exceeded 5
secondary 5
zakaria 5
appropriately 5
zamata 5
ellis 5
dictators 5
syrias 5
ehrhardt 5
resembles 5
cheerful 5
cigars 5
bloodbath 5
kara 5
shack 5
rifles 5
noticing 5
brewery 5
reinforced 5
pari 5
leaderless 5
fiveterm 5
goodwill 5
singlepayer 5
brushed 5
santoru 5
ensures 5
flux 5
wit 5
jewelry 5
connecting 5
wayward 5
##term 5
inundated 5
denham 5
automotive 5
recreation 5
cordova 5
jointly 5
trait 5
ankeny 5
allnighter 5
taxexemption 5
ambassadorship 5
alito 5
agricultural 5
littlenoticed 5
safeway 5
messenger 5
cabin 5
workingage 5
mic 5
unseen 5
lampoons 5
daytoday 5
stationed 5
adm 5
gressreuters 5
propel 5
legions 5
topless 5
wellpositioned 5
poison 5
bukaty 5
shadowy 5
eternal 5
correctness 5
tow 5
townhallstyle 5
flame 5
gansler 5
palmieri 5
nras 5
frontrunne 5
millio 5
illprepared 5
lagarde 5
proudly 5
discount 5
istock 5
existed 5
gin 5
wireless 5
shines 5
loosening 5
yacht 5
weakening 5
hammers 5
begu 5
topsecret 5
goodwin 5
scorecard 5
allout 5
bigtime 5
##foot 5
jammed 5
endeavor 5
slippery 5
ellison 5
stratham 5
schiavo 5
bracelet 5
wrongful 5
informing 5
tariffs 5
grumman 5
bishop 5
brash 5
ali 5
ticks 5
mighty 5
faint 5
widens 5
johannesburg 5
goat 5
prefers 5
turnover 5
stopandfrisk 5
cookie 5
consequence 5
zachary 5
hutchison 5
intervened 5
screenings 5
cigarette 5
publicity 5
retaliated 5
outfit 5
annie 5
chided 5
brokers 5
viola 5
polled 5
associations 5
restroom 5
janelle 5
questionandanswer 5
seizes 5
someday 5
pushback 5
rarest 5
strategically 5
enrique 5
sir 5
dwv 5
carole 5
invitations 5
ogrocki 5
repairing 5
statute 5
gail 5
leanings 5
##a 5
##b 5
acquired 5
exam 5
thinkprogress 5
sopa 5
attractive 5
debuts 5
linger 5
splashy 5
specialist 5
libertarianleaning 5
cancellation 5
classification 5
expiring 5
temperatures 5
scottsdale 5
feedback 5
cornerstone 5
shelves 5
evil 5
layoffs 5
tellall 5
nicholsonreuters 5
wto 5
ana 5
jackass 5
memoria 5
distribute 5
battlefield 5
instructed 5
drawnout 5
thinkers 5
elton 5
confidentiality 5
viewpoint 5
lowkey 5
puns 5
routes 5
financier 5
marred 5
spars 5
reconcile 5
airliner 5
tsunami 5
neighbor 5
raimondo 5
futile 5
elimination 5
disgraceful 5
janna 5
waterways 5
phillip 5
reutersyuri 5
plank 5
broadway 5
ruining 5
coping 5
fuller 5
nasas 5
mlk 5
zingers 5
apiece 5
debunking 5
ode 5
stoke 5
pigs 5
whither 5
jamestown 5
tempe 5
embarrass 5
fiasco 5
ceremon 5
espaillat 5
unravel 5
billiondollar 5
fielded 5
lest 5
kramer 5
hauled 5
overdoses 5
sancya 5
campaigntrail 5
mezvinsky 5
longstalled 5
saves 5
interns 5
hahn 5
lan 5
fai 5
triggering 5
shameful 5
bread 5
worldclass 5
observance 5
tel 5
geena 5
forensic 5
ponder 5
applauds 5
nephew 5
toast 5
suffrage 5
engines 5
candidacies 5
stink 5
mingle 5
unavoidable 5
snowy 5
peninsula 5
corbyn 5
kenyan 5
minimumwage 5
switched 5
strengthened 5
superpower 5
norwalk 5
disapproved 5
centralized 5
disqualify 5
bravo 5
discover 5
migraines 5
bosworth 5
mansfield 5
winnipeg 5
rebuilding 5
inhofes 5
reconvenes 5
mulligan 5
businessweek 5
yorktown 5
roseburg 5
whipped 5
cared 5
favoritism 5
foggy 5
bryce 5
frontpage 5
senseless 5
valid 5
riedelap 5
laser 5
creeps 5
exceptionally 5
hampered 5
limelight 5
businessmen 5
sta 5
empowered 5
approves 5
cylvia 5
runnerup 5
mega 5
logjam 5
lamontagne 5
wounding 5
motivating 5
saddled 5
pierre 5
sake 5
reiterates 5
lakewood 5
reel 5
factchecks 5
reimbursements 5
backandforth 5
micah 5
veered 5
snoop 5
colorad 5
baird 5
helicopters 5
brook 5
masters 5
undo 5
jeffress 5
barb 5
parenting 5
kundra 5
photoscott 5
reinforce 5
powder 5
trove 5
correathe 5
grappling 5
crushed 5
rewarding 5
marovichbloomberg 5
paterno 5
elephants 5
recruited 5
converted 5
segments 5
cruising 5
eyebrows 5
cali 5
procter 5
capitalist 5
fetus 5
deck 5
ouagadougou 5
helena 5
intimidation 5
grads 5
adjourned 5
perceive 5
ignorance 5
apprehended 5
sly 5
overt 5
blackmail 5
parsing 5
amsterdam 5
selfdeportation 5
tossing 5
militias 5
alto 5
perk 5
perr 5
beholden 5
agenc 5
agend 5
fehrnstrom 5
nyu 5
q 5
sarcastic 5
requesting 5
pumping 5
spies 5
discharged 5
norman 5
trace 5
hardships 5
precise 5
dempsey 5
obenshain 5
patrons 5
innovations 5
gripped 5
profiled 5
traffickers 5
edwin 5
mortgages 5
prochoice 5
mor 5
grandstanding 5
gabbard 5
lightning 5
manufactured 5
atlant 5
biological 5
ribbon 5
skeptic 5
publishes 5
leveling 5
buses 5
modernday 5
destination 5
detected 5
kaci 5
cups 5
appellate 5
leslie 5
embarks 5
keys 5
profoundly 5
ourselves 5
pronounced 5
gainesville 5
likeliest 5
quarterly 5
foreignborn 5
marylands 5
sins 5
bode 5
austrian 5
estranged 5
identifies 5
constraints 5
explanations 5
sadly 5
lover 5
audits 5
invasive 5
darrel 5
assert 5
landmarks 5
novels 5
topping 5
chronic 5
##count 5
ivory 5
pic 5
patsy 5
surreal 5
venus 5
changer 5
mouths 5
choir 5
flipflopper 5
rae 5
rap 5
rider 5
posner 5
glow 5
metal 5
pinocchio 5
outages 5
bureaucratic 5
fleeting 5
shareholders 5
javad 5
abysmal 5
stagnant 5
depot 5
reply 5
pioneered 5
tweak 5
australian 5
milford 5
corners 5
pamphlet 5
georgi 5
alabamas 5
quirky 5
confessed 5
conversion 5
slope 5
gimmicks 5
confidant 5
mockery 5
unwilling 5
caribbean 5
inspect 5
royals 5
brittany 5
secondmost 5
marjorie 5
distinctions 5
summitt 5
helberap 5
discouraging 5
catastrophe 5
fax 5
ticked 5
prolonged 5
likeminded 5
operators 5
orlean 5
fixture 5
discriminating 5
treasured 5
cleaner 5
sandwiches 5
gadsden 5
hiv 5
whistle 5
arc 5
fernandez 5
retroactively 5
spears 5
anna 5
hatred 5
retweeted 5
photojose 5
philosopher 5
sniper 5
manipulating 5
chokshi 5
feverishly 5
scales 5
confession 5
scaled 5
tad 5
tab 5
tal 5
fortunate 5
emperor 5
trap 5
lobbies 5
firepower 5
probation 5
accent 5
alfonso 5
xavier 5
purely 5
closet 5
genius 5
pants 5
arizon 5
safely 5
broadcasts 5
bbq 5
elbows 5
rocker 5
republica 5
murdered 5
warrants 5
brush 5
ensured 5
sustaining 4
kopetsky 4
reopens 4
doldrums 4
photomorry 4
adventist 4
screaming 4
wales 4
sixteen 4
saddened 4
persisted 4
prodemocratic 4
disturbed 4
seizures 4
rewards 4
idle 4
simplify 4
resonated 4
dailey 4
bliss 4
phasedretirement 4
boarded 4
waitangi 4
blonde 4
edmondsap 4
davi 4
employ 4
hal 4
ham 4
har 4
officeholders 4
beings 4
fabric 4
eastwoods 4
safeguard 4
cambodia 4
shootout 4
mcghee 4
embark 4
gloomy 4
heavyweight 4
dusty 4
impacted 4
gregoire 4
rutherford 4
mailboxes 4
photolm 4
professors 4
instability 4
curbs 4
initiate 4
neglect 4
uninterrupted 4
mayorkas 4
downplayed 4
jittery 4
imagines 4
rewarded 4
historymaking 4
concentrated 4
millionaire 4
gridiron 4
runnin 4
sommers 4
debilitating 4
superiority 4
satisfactory 4
inouyes 4
genachowski 4
cooked 4
birthers 4
sarasota 4
thumbsup 4
initiated 4
memoirs 4
lesotho 4
sikh 4
hickey 4
enrollments 4
bummed 4
purdue 4
denny 4
offline 4
preservation 4
firsts 4
bedridden 4
hamptons 4
calculations 4
typhoon 4
getaway 4
prescott 4
remedy 4
allis 4
nrc 4
presser 4
litchfield 4
cayman 4
nabs 4
salvo 4
amusing 4
kasim 4
caucu 4
downward 4
erich 4
surveying 4
puzzling 4
internecine 4
screengrab 4
twostep 4
quaint 4
derby 4
assuring 4
nonpolitical 4
unopposed 4
benefitting 4
tightrope 4
morningside 4
physicians 4
billings 4
egregious 4
depict 4
antagonism 4
staring 4
newsroom 4
chronicling 4
pham 4
antidiscrimination 4
pies 4
michiga 4
underwent 4
elisabeth 4
biology 4
imaginary 4
oneofakind 4
clamoring 4
thenpresident 4
malawis 4
monologue 4
declassified 4
residual 4
bro 4
recovers 4
misleads 4
reasonably 4
dumping 4
sprin 4
implicated 4
elevator 4
acquire 4
assesses 4
tailormade 4
disavowed 4
telecommunications 4
characterizing 4
sousa 4
fuss 4
abramoff 4
peer 4
affai 4
profession 4
miamidade 4
duggar 4
plymouth 4
nsas 4
guessed 4
getoutthevote 4
ophthalmologist 4
kenyatta 4
bangs 4
plotted 4
highton 4
abrams 4
nebraskas 4
spreads 4
clarke 4
notguilty 4
magazin 4
ginsberg 4
gasp 4
deluge 4
geoff 4
manmade 4
neatly 4
governoras 4
stroll 4
gazette 4
noonan 4
phototimothy 4
encyclical 4
kantar 4
maternity 4
greetings 4
europ 4
ame 4
pitcher 4
fools 4
fountain 4
baristas 4
reaffirming 4
dunn 4
jrs 4
lowering 4
lineups 4
redmondreuters 4
surpassed 4
remnants 4
wishful 4
helmand 4
founders 4
flatout 4
obligated 4
predatory 4
guinta 4
loads 4
apocalypse 4
##vote 4
imperiled 4
cherokee 4
cave 4
workforc 4
stored 4
hype 4
buckwild 4
hooters 4
consistency 4
settlements 4
usagov 4
questioner 4
envisioned 4
usajobsgov 4
simferopol 4
tobey 4
haim 4
rhimes 4
louisdreyfus 4
ignorant 4
underrated 4
bellefonte 4
convert 4
airspace 4
mirrors 4
lapse 4
lenore 4
nunnelee 4
firings 4
armor 4
horrors 4
regs 4
attentio 4
brighten 4
brighter 4
assistants 4
mused 4
examiner 4
pinpoint 4
broas 4
pistole 4
wildstein 4
dokla 4
compromises 4
backstage 4
samsung 4
atheist 4
knell 4
unionized 4
markon 4
fantastic 4
objectively 4
coons 4
partisa 4
whatsoever 4
propublica 4
allens 4
schoolchildren 4
descends 4
budding 4
aston 4
ernesto 4
realtime 4
ripping 4
rattle 4
grind 4
annoyed 4
weekends 4
artificial 4
weary 4
motto 4
eulogizes 4
deepen 4
parish 4
fullcourt 4
evolve 4
inherit 4
culturally 4
nudge 4
jeantel 4
sailors 4
deat 4
missive 4
pollwatch 4
fraction 4
analysi 4
coble 4
positio 4
goldfarb 4
disorders 4
mostaired 4
congratulating 4
durbins 4
annals 4
maguire 4
transplant 4
lieutenants 4
cows 4
quoting 4
drags 4
pointedly 4
publicsector 4
postracial 4
carnival 4
inefficient 4
truisms 4
jungle 4
voodoo 4
fertilization 4
stormy 4
rohrabacher 4
spans 4
companion 4
bowser 4
decriminalization 4
nazism 4
dispensary 4
spice 4
tatars 4
shattered 4
chuckgrassley 4
aflcios 4
mull 4
misery 4
photorainier 4
immigrated 4
itas 4
wooed 4
mislead 4
heartfelt 4
kinzinger 4
bombshell 4
needing 4
ohsumibloomberg 4
differentiate 4
trolls 4
chock 4
resisted 4
deferred 4
portugal 4
zion 4
unesco 4
borrows 4
collectors 4
moores 4
abusive 4
retailer 4
malawi 4
consulted 4
organizational 4
statutes 4
utterly 4
overlooking 4
salad 4
copenhagen 4
assisted 4
ridesharing 4
composed 4
recordhigh 4
varies 4
sensenbrenner 4
subsequently 4
symbols 4
shonda 4
galaxy 4
heroism 4
weber 4
bolder 4
preschool 4
campaignrelated 4
customary 4
approached 4
backwards 4
sexting 4
gingerly 4
pressgfk 4
tearful 4
pave 4
intensity 4
difficulties 4
milliondollar 4
seasoned 4
nevertheless 4
headlinegrabbing 4
exceedingly 4
multibilliondollar 4
griffith 4
gmo 4
recommending 4
delegations 4
vibrant 4
photolauren 4
justic 4
proclinton 4
sequel 4
disciplined 4
statebystate 4
philippe 4
governorship 4
museums 4
grenade 4
hirono 4
finalist 4
plumbing 4
revisions 4
desai 4
bitcoin 4
promotions 4
texasmexico 4
spite 4
anxiously 4
mud 4
cam 4
dade 4
assembling 4
descending 4
pursues 4
allocate 4
donates 4
ppp 4
annotating 4
mailprocessing 4
nerds 4
mismanaged 4
rol 4
trickle 4
celebs 4
tripartite 4
post# 4
unfamiliar 4
wallets 4
congregation 4
oftentimes 4
reclaiming 4
scripted 4
slaying 4
trackers 4
bath 4
torch 4
dispatched 4
tiahrt 4
exchanging 4
knicks 4
spotlights 4
escalates 4
surreptitiously 4
casa 4
abducted 4
eureka 4
tomohiro 4
footballs 4
porter 4
beaches 4
hipstercom 4
spotligh 4
relocation 4
rouse 4
haitian 4
livetweeted 4
budgetcutting 4
finale 4
antihumantrafficking 4
invention 4
thompsons 4
togethe 4
flap 4
antibiotics 4
i## 4
ubiquitous 4
proclaimed 4
lobbed 4
czars 4
zbigniew 4
seeming 4
exec 4
stately 4
triangle 4
oversea 4
proabortion 4
yucca 4
cement 4
gopfox 4
liquids 4
halperin 4
demints 4
savoia 4
consolation 4
youthful 4
antiamerican 4
warmer 4
dale 4
relaunch 4
reines 4
wording 4
selfincrimination 4
prohillary 4
cheerleader 4
clever 4
arduous 4
crs 4
campaigner 4
lamanno 4
acknowledgment 4
honorable 4
russianbacked 4
obscurity 4
misunderstood 4
holland 4
administrators 4
monsters 4
grouse 4
tunisia 4
newsom 4
fearful 4
ringing 4
buddhist 4
throngs 4
tcf 4
antisemitism 4
suspiciously 4
georges 4
smoothly 4
breakthroughs 4
nuke 4
spiral 4
ornate 4
plaudits 4
reframe 4
corvette 4
charted 4
linsleyap 4
cheating 4
bedrock 4
heralded 4
dyke 4
attracts 4
bowls 4
fugitive 4
assures 4
lauten 4
lego 4
defiantly 4
stealthy 4
corita 4
waitandsee 4
normandy 4
khaled 4
chili 4
saida 4
meade 4
entrenched 4
casually 4
northrop 4
warring 4
dental 4
rebut 4
defendants 4
hemisphere 4
vanguard 4
juvenile 4
solicitation 4
terroris 4
educate 4
wherever 4
degrade 4
interracial 4
rehabilitate 4
bucking 4
lackluster 4
dinoia 4
matches 4
subordinates 4
reutersaaron 4
dodgers 4
voto 4
haleys 4
unkind 4
raged 4
wielding 4
reigns 4
loudly 4
nogales 4
skies 4
colony 4
rightnow 4
luca 4
unsuccessfully 4
partied 4
bergen 4
interfaith 4
cloned 4
ah 4
au 4
hillsborough 4
dressing 4
ghana 4
indoors 4
coercion 4
evolves 4
unattended 4
imagery 4
hershey 4
geographic 4
olivia 4
psychology 4
mattered 4
drifting 4
pitfalls 4
sympathies 4
observatory 4
analogy 4
radisson 4
morse 4
soughtafter 4
epashawn 4
socialite 4
volcanic 4
assassinated 4
aleppo 4
cannes 4
nationalist 4
seventhday 4
shrugged 4
alexei 4
cnns 4
archbishop 4
streamed 4
firefighting 4
postpresidency 4
cofounded 4
thirteen 4
buoyed 4
adopts 4
bonanza 4
multiyear 4
superhero 4
injustice 4
newsnew 4
jodi 4
volley 4
adjusted 4
pounces 4
cy 4
rioting 4
theyve 4
hardliner 4
nevadans 4
sickened 4
headlining 4
crisp 4
bigotry 4
indications 4
foreseeable 4
flailing 4
cosmopolitan 4
collectivebargaining 4
hpv 4
cyberspace 4
baffling 4
sinks 4
inception 4
cheats 4
emeritus 4
piers 4
chilled 4
speculating 4
nonessential 4
mcgee 4
totten 4
rebrand 4
postparis 4
havan 4
peyton 4
irregularities 4
gentleman 4
tainted 4
cow 4
con 4
beheaded 4
petty 4
jeopardized 4
convening 4
comparative 4
govs 4
scooping 4
angering 4
aguilar 4
lews 4
mcconnel 4
healthiest 4
hickox 4
supposedly 4
professionalism 4
hiking 4
unimpressed 4
freshfaced 4
wistful 4
candles 4
ddel 4
recap 4
pimps 4
ep 4
hastily 4
procruz 4
weekdays 4
mammograms 4
photojeff 4
proportion 4
pesticide 4
stems 4
mayorelect 4
slugger 4
upton 4
leebloomberg 4
hover 4
hacks 4
dejakap 4
horserace 4
administered 4
storage 4
strings 4
mph 4
runway 4
spontaneous 4
chops 4
ft 4
cohort 4
fined 4
flipflop 4
trailed 4
heavyweights 4
easley 4
wacko 4
probability 4
handshakes 4
ecuador 4
juice 4
fiercest 4
immortalized 4
poorer 4
postrecession 4
shar 4
outofstate 4
overweight 4
stengel 4
provoking 4
brakes 4
mustang 4
pere 4
trucking 4
wintour 4
consultation 4
kimoon 4
eminem 4
alabadi 4
solidifying 4
ideologically 4
wellreceived 4
newsweek 4
graha 4
beg 4
bev 4
envy 4
binyamin 4
slows 4
ascended 4
squads 4
ryanap 4
gopers 4
salman 4
kloppenburg 4
spells 4
prorussian 4
treads 4
antitrump 4
thereafter 4
curbed 4
upa 4
concise 4
ney 4
lbjs 4
alliances 4
managemen 4
overstepping 4
aborted 4
extensively 4
iso 4
subtletyfree 4
villages 4
normalizing 4
niece 4
integrate 4
modeling 4
iq 4
clinging 4
overstated 4
ope 4
govt 4
nakamurathe 4
hoosier 4
bellwether 4
temper 4
sidestep 4
revitalize 4
dieg 4
unrestricted 4
bandwagon 4
genuinely 4
scenarios 4
stapletonreuters 4
bowmerap 4
cute 4
canberra 4
rabbi 4
plagiarized 4
imperative 4
amigos 4
rewrites 4
cloture 4
unduly 4
plains 4
statehouses 4
gigantic 4
invalidating 4
tipsheet 4
blurred 4
lausanne 4
loper 4
tub 4
ucla 4
spills 4
sincere 4
wifes 4
blankets 4
othe 4
bookstore 4
babbitt 4
cooperative 4
economically 4
shellacking 4
sanction 4
ratcliffe 4
aspirant 4
groll 4
showmanship 4
lanza 4
coat 4
render 4
rothstyle 4
partiers 4
waged 4
plows 4
pains 4
nevadas 4
lerne 4
recordsetting 4
annexation 4
policymaking 4
journeyed 4
alon 4
tightens 4
platinum 4
underdogs 4
lenient 4
unannounced 4
revising 4
fullscale 4
impoverished 4
superpacs 4
wolfowitz 4
adjusting 4
dimmed 4
dakar 4
golfer 4
graves 4
mural 4
nonexistent 4
biographies 4
ashamed 4
contagion 4
crocker 4
hangar 4
bothered 4
addiction 4
latitude 4
strive 4
wholly 4
defens 4
receipts 4
comfortably 4
callers 4
organ 4
nationas 4
punishmen 4
attributes 4
hardcharging 4
airplanes 4
arabic 4
surpass 4
interestingly 4
baseless 4
bug 4
wise 4
seismic 4
vitriolic 4
streep 4
shining 4
orthodoxy 4
militarys 4
thesis 4
reformers 4
airportsecurity 4
justreleased 4
ballistic 4
evander 4
boil 4
gods 4
skinnydipping 4
handwritten 4
halvorson 4
sanitation 4
inventory 4
groundswell 4
darndest 4
cramer 4
amok 4
jazeera 4
paltrow 4
enrolling 4
icc 4
icy 4
laborers 4
purposely 4
nodded 4
cathleen 4
meryl 4
outsize 4
undervalued 4
cheerleaders 4
gaps 4
adequately 4
petite 4
sixyearold 4
unborn 4
circa 4
mcbride 4
mates 4
##state 4
jakarta 4
applauding 4
jobdevelopment 4
pummeled 4
#m 4
pole 4
hughes 4
conception 4
fetuses 4
agitated 4
communicate 4
calmer 4
terrified 4
condone 4
briefin 4
solesource 4
belonging 4
grandfather 4
dalton 4
directions 4
snub 4
fullblown 4
coerce 4
islan 4
argentine 4
inherent 4
ushering 4
mexicos 4
boldness 4
blaring 4
solidly 4
defects 4
overrode 4
illegals 4
memorandum 4
revered 4
####word 4
pickups 4
nailed 4
lamenting 4
condo 4
bigwigs 4
dui 4
confirme 4
deepwater 4
p# 4
aged 4
knack 4
bounced 4
grievance 4
eliasbloomberg 4
forbidding 4
boustany 4
#monthold 4
politicking 4
sensation 4
raouxap 4
latebreaking 4
romneyryan 4
sorr 4
heil 4
nixed 4
islamabad 4
villain 4
tennessees 4
contaminated 4
integrated 4
slides 4
regards 4
europes 4
francisc 4
spurring 4
handgun 4
enlisting 4
disenfranchised 4
hospice 4
hunters 4
literal 4
fingerpointing 4
antigun 4
ave 4
propensity 4
panther 4
openended 4
mountthe 4
conservativeleaning 4
disrupting 4
posters 4
conspired 4
demoted 4
oceans 4
manzullo 4
tolerate 4
valiant 4
talkathon 4
rework 4
unforeseen 4
carolinians 4
parenthoods 4
ro 4
memberships 4
reschedule 4
pocket 4
planner 4
edgar 4
dorm 4
gleaming 4
haters 4
antiisrael 4
psychological 4
sebastian 4
condit 4
thankful 4
yesterda 4
moneylosing 4
bribes 4
sigh 4
privateequity 4
reaffirmed 4
penalt 4
junk 4
hurtling 4
deployments 4
wicker 4
inflamed 4
stature 4
detached 4
chaplains 4
sb 4
innocuous 4
avid 4
swastika 4
scorsese 4
reckoning 4
unifying 4
poems 4
shores 4
coats 4
dismissive 4
recruiters 4
hinged 4
purse 4
expenditures 4
missiles 4
darn 4
dare 4
rescuing 4
miriam 4
ephron 4
dtex 4
vikings 4
tail 4
highquality 4
ta 4
dodges 4
reactors 4
musicians 4
seoul 4
treatments 4
constitutions 4
televise 4
macmillanfor 4
nifty 4
nugget 4
resolute 4
lega 4
aaa 4
affordability 4
pentago 4
jade 4
highrisk 4
unelectable 4
raced 4
ernstgetty 4
halftime 4
reliably 4
commenting 4
suntimes 4
doozy 4
upbringing 4
ousting 4
yearsold 4
hitters 4
pall 4
unscripted 4
awaited 4
pedestrians 4
holdout 4
midday 4
morehouse 4
practicing 4
shuffles 4
reminders 4
newman 4
jagger 4
prank 4
evacuated 4
coffman 4
fullfledged 4
buttons 4
spontaneity 4
jacqueline 4
pilloried 4
disgruntled 4
galore 4
streams 4
impersonator 4
sanger 4
harwood 4
eduardo 4
middleincome 4
blowing 4
venezuelan 4
flynn 4
reckless 4
reinvent 4
pedroncelli 4
verify 4
coined 4
fivestate 4
defenders 4
nets 4
remnick 4
rocks 4
midaugust 4
stalls 4
latter 4
exercises 4
understaffed 4
wannabe 4
spains 4
wv 4
twitterverse 4
cuccinellis 4
saddam 4
palpable 4
athletic 4
marginal 4
viking 4
photosteven 4
gawker 4
posh 4
capped 4
converse 4
ferrell 4
topped 4
secondincommand 4
brotherinlaw 4
roanoke 4
selects 4
culmination 4
gillett 4
kerr 4
americorps 4
pills 4
album 4
hairstyles 4
taxation 4
cornwall 4
santiago 4
loath 4
buddie 4
baltimor 4
sixweek 4
bankrup 4
enacting 4
unease 4
volkswagen 4
leftover 4
barrels 4
kaneohe 4
centrists 4
bronsteingetty 4
peas 4
suited 4
prerequisite 4
photocheryl 4
fizzled 4
hodges 4
selective 4
sneak 4
canadianborn 4
persuading 4
norma 4
applauded 4
registers 4
hallstyle 4
selfdefense 4
plummeted 4
protector 4
longerterm 4
famousinfamous 4
lowperforming 4
startups 4
mostwatched 4
tisei 4
swooped 4
kitzhabers 4
lasts 4
sifting 4
accustomed 4
poke 4
wic 4
surpluses 4
vinson 4
handy 4
ills 4
memes 4
withering 4
filthy 4
makeover 4
encrypted 4
thomson 4
hernandez 4
schoolgirls 4
winwin 4
gashap 4
transformational 4
magician 4
weld 4
bundle 4
tongue 4
plenary 4
graced 4
warp 4
setup 4
eavesdropping 4
polygamy 4
therapy 4
favo 4
dwell 4
mini 4
planetary 4
decriminalizing 4
tripled 4
peddling 4
exirs 4
bloombergs 4
teeth 4
revoke 4
excellence 4
ayn 4
swagger 4
kenneth 4
winston 4
tall 4
undermines 4
verveer 4
guevara 4
zurich 4
poker 4
brooke 4
phelan 4
singling 4
republicanaligned 4
subplot 4
eyed 4
sailing 4
booted 4
clearwater 4
umpqua 4
cochairmen 4
skyhigh 4
educated 4
threepoint 4
shorttimer 4
reutersjoshua 4
indisputable 4
sentinel 4
colonial 4
linz 4
burea 4
memorials 4
daugaard 4
haider 4
kasichs 4
alberto 4
alberta 4
nonwhite 4
compilation 4
wiped 4
wipes 4
gravely 4
blunder 4
doused 4
mumia 4
disrespectful 4
frankfort 4
connolly 4
perriello 4
longrange 4
brewers 4
disobedience 4
bragged 4
assumption 4
storyline 4
wonky 4
silk 4
dustup 4
retweet 4
danced 4
twostate 4
gam 4
schultzs 4
consular 4
sectarianism 4
presidentelect 4
benign 4
liby 4
salutes 4
usrussian 4
gardening 4
pell 4
previewed 4
amendolaap 4
filibusterproof 4
cristina 4
brushing 4
afghanistans 4
cynthia 4
huddles 4
fastmoving 4
pipes 4
weekday 4
truism 4
cyberspying 4
capitalizing 4
lama 4
canfield 4
bluff 4
nonstarter 4
institutional 4
charting 4
michaels 4
accumulated 4
teleprompter 4
pella 4
liquor 4
alaskan 4
graphs 4
grabbed 4
photorobert 4
movemen 4
propositions 4
ado 4
karel 4
dnevada 4
vocabulary 4
pepper 4
stellar 4
seriousness 4
aroun 4
hamby 4
swings 4
origin 4
amman 4
sears 4
awoke 4
feulner 4
pondering 4
lodge 4
mascots 4
hostility 4
birtherism 4
submarine 4
roxane 4
leftist 4
theodore 4
incapable 4
alarms 4
breaching 4
arbitrary 4
zionist 4
sewing 4
baltics 4
permitted 4
plum 4
##stcentury 4
chirlane 4
llp 4
livetweet 4
discovering 4
untenable 4
standout 4
pediatric 4
rafael 4
ifill 4
lawns 4
oneminute 4
autumn 4
procrastinators 4
geeks 4
demagoguery 4
photojournalist 4
painkillers 4
paramount 4
commodity 4
ludacris 4
saban 4
uniformed 4
schooler 4
malta 4
fracture 4
stormed 4
poo 4
confessions 4
dithering 4
militarystyle 4
blowout 4
cynicism 4
jeep 4
tuskegee 4
narrowing 4
earners 4
josephwashington 4
bemoaned 4
pond 4
swung 4
cours 4
acrimony 4
unsurprising 4
developer 4
misspelled 4
gifford 4
stampede 4
ding 4
dind 4
sailor 4
notify 4
hochschild 4
inaugurated 4
firstyear 4
kline 4
rtx 4
shepherd 4
hesitant 4
landowners 4
unidentified 4
awakening 4
illinoi 4
esteemed 4
literature 4
chickens 4
outoftouch 4
dinne 4
hallmark 4
pipelin 4
raided 4
dormant 4
substances 4
gyrocopter 4
motive 4
freak 4
skydive 4
overlap 4
worrisome 4
goodies 4
#day 4
presidentas 4
bittersweet 4
confidants 4
counterfeit 4
honestly 4
quake 4
flee 4
isolation 4
alerted 4
chips 4
queries 4
publishers 4
interrupts 4
outspend 4
whale 4
northeastern 4
opera 4
gershengorn 4
mailer 4
jenna 4
toured 4
alienated 4
spearheaded 4
lord 4
elegant 4
progrowth 4
playboy 4
nkurunziza 4
bernard 4
giron 4
gilbert 4
emailing 4
chairmans 4
qaeda 4
branding 4
longago 4
airmen 4
rebutted 4
craigslist 4
echoed 4
occurring 4
stints 4
carryon 4
postwhite 4
syrians 4
poking 4
dove 4
unsolicited 4
beaumont 4
parades 4
exploding 4
senter 4
routed 4
chevy 4
separatists 4
knee 4
turnberry 4
govelect 4
genera 4
housesenate 4
cedric 4
mh## 4
rekindled 4
yangon 4
francepresse 4
segar 4
resentment 4
discarded 4
snagged 4
oneword 4
maganaap 4
lowell 4
motley 4
imperil 4
powmia 4
curtisgetty 4
retained 4
contended 4
sargent 4
directives 4
hardship 4
rehashing 4
pdf 4
coincidence 4
forgetting 4
evaluating 4
pound 4
folksy 4
lineitem 4
leone 4
hardisty 4
sufficient 4
dictates 4
biennial 4
energetic 4
beginnings 4
schocks 4
postings 4
apparatus 4
indias 4
cybertheft 4
depiction 4
emerson 4
weaker 4
trumpet 4
mississippis 4
elites 4
traced 4
valve 4
hindering 4
outsid 4
greeces 4
jurisdictions 4
intervening 4
freewheeling 4
##yearolds 4
retardant 4
softening 4
mchale 4
kirks 4
elitist 4
insufficient 4
forests 4
thirtyfive 4
jeanclaude 4
aeronautics 4
nogo 4
foolishness 4
cohn 4
overrun 4
lat 4
manslaughter 4
comin 4
mercy 4
caustic 4
spartanburg 4
pearson 4
erroneous 4
plummeting 4
scrutin 4
peacefully 4
mobilization 4
nix 4
huddling 4
countrys 4
chides 4
thenvice 4
mayo 4
calculus 4
robocall 4
rile 4
thirdranking 4
trophy 4
theorists 4
weldon 4
bestowed 4
vegan 4
agencie 4
genes 4
disavow 4
angelo 4
partyaligned 4
conceal 4
flourishes 4
diva 4
jousting 4
whenever 4
futures 4
zac 4
eliminates 4
chads 4
youngstown 4
crossover 4
tooth 4
aint 4
reauthorize 4
analyzed 4
reluctantly 4
ricardo 4
weddin 4
lettermans 4
gentlemen 4
centuries 4
investigates 4
knowledgeable 4
assassin 4
youd 4
exonerated 4
restores 4
correa 4
zuckerman 4
icons 4
voicing 4
seconddegree 4
retention 4
partnering 4
strauss 4
oratory 4
relocating 4
discloses 4
reluctance 4
relate 4
payer 4
sympathizes 4
meteoric 4
breathless 4
terribly 4
oppositesex 4
heartbeat 4
lament 4
controvers 4
lid 4
liv 4
lip 4
watc 4
intensify 4
prickly 4
plausible 4
stale 4
kwan 4
allyson 4
pillar 4
##mile 4
awardwinning 4
uta 4
stumbling 4
objection 4
fewest 4
outing 4
russert 4
ramsey 4
congratulated 4
chikwendiuwashington 4
africans 4
scandalplagued 4
fresno 4
gash 4
gwyneth 4
caregivers 4
selfimposed 4
neel 4
screw 4
awe 4
hayadams 4
packard 4
felipe 4
statu 4
publicized 4
kashkari 4
piqued 4
powells 4
balloon 4
blakereuters 4
pageantry 4
skill 4
ample 4
animosity 4
calamitous 4
airpor 4
basks 4
abou 4
barometer 4
pacts 4
myungbak 4
colber 4
yosemite 4
thankyou 4
curiosity 4
damascus 4
carve 4
downs 4
reuterschris 4
everyman 4
somodevilla 4
concussion 4
witnessing 4
undertheradar 4
solomon 4
wiod 4
secondtier 4
bat 4
bas 4
beebe 4
reutersrandall 4
tolerance 4
suppose 4
schweikert 4
revel 4
elswickassociated 4
litmus 4
hinted 4
approximate 4
influencing 4
faring 4
neuroscience 4
overdue 4
mild 4
mill 4
bomber 4
cornel 4
disgusting 4
dim 4
vandalized 4
nbcwsj 4
nyt 4
zumwalt 4
africas 4
###character 4
outweigh 4
leibovich 4
lexicon 4
demonstrator 4
youngs 4
sandys 4
partyline 4
hardhitting 4
stretched 4
likability 4
griping 4
dangerously 4
cabos 4
pag 4
pam 4
bottle 4
shying 4
doctoral 4
edgartown 4
simmons 4
measuring 4
despicable 4
tuning 4
compliant 4
unsettled 4
consternation 4
dilma 4
boogeyman 4
crosshairs 4
sergey 4
syracuse 4
photoop 4
memos 4
maron 4
diamond 4
lingered 4
swamped 4
prophet 4
instances 4
flacco 4
clarifying 4
chester 4
dealmaking 4
rebranded 4
tamagetty 4
dietary 4
volunteered 4
fending 4
botticelli 4
impetus 4
costumed 4
piles 4
fairgoers 4
morry 4
scariest 4
newsmax 4
dragging 4
brokaw 4
impress 4
clement 4
bleeding 4
justification 4
weinstein 4
crystallize 4
payne 4
marley 4
implication 4
libertarianism 4
qualification 4
techsavvy 4
builtin 4
portfolio 4
photography 4
cantors 4
handwriting 4
dakotas 4
rehm 4
parliamen 4
awash 4
abolitionist 4
novelist 4
wellheeled 4
cicilline 4
photorich 4
porkbarrel 4
levers 4
feeding 4
scrutinize 4
ashford 4
anymor 4
weakens 4
progay 4
cancellations 4
mh### 4
portable 4
navigator 4
revival 4
guinness 4
hovering 4
downsize 4
availability 4
chipotle 4
fared 4
detainee 4
reorganizations 4
informative 4
convict 4
plunging 4
curry 4
puzzle 4
admiration 4
prematurely 4
uniformly 4
stacks 4
abhorrent 4
eroding 4
farnam 4
chaired 4
swallowed 4
dismay 4
dines 4
sphere 4
secures 4
summoning 4
aumf 4
realistic 4
ushercbs 4
solvent 4
authenticity 4
attendee 4
conjunction 4
retreating 4
otero 4
dconn 4
tanning 4
doddfrank 4
comp 4
summi 4
followup 4
reimburse 4
implored 4
capping 4
bows 4
isla 4
dneb 4
components 4
harrell 4
deteriorating 4
ewing 4
stocks 4
siblings 4
entourage 4
spendin 4
hump 4
########## 4
retaliate 4
eluded 4
relieved 4
imports 4
fond 4
hid 4
hik 4
barr 4
everson 4
blazes 4
fraternity 4
democraticcontrolled 4
rig 4
lengths 4
dared 4
reviewjournal 4
resilience 4
amidst 4
cromnibus 4
familie 4
z 4
worthwhile 4
abujamal 4
gress 4
antihagel 4
purity 4
endofyear 4
wonks 4
destinations 4
shane 4
burner 4
cache 4
#####word 4
homosexuals 4
paulson 4
eggleston 4
bourg 4
audiovisual 4
profanity 4
fourterm 4
vanilla 4
welldocumented 4
vintage 4
earthquakes 4
leap 4
setto 4
wesley 4
tempered 4
dependence 4
instructive 4
windfall 4
schlegel 3
tilton 3
chiraag 3
designing 3
shocks 3
mailings 3
affiliates 3
uplifting 3
projection 3
insecurity 3
meteorologist 3
toxins 3
boltons 3
fir 3
songwriter 3
timeout 3
delreal 3
smirk 3
adapt 3
outburst 3
commissaries 3
trillio 3
reuben 3
sheen 3
pandemics 3
sitin 3
limitless 3
resonates 3
metrics 3
rica 3
mastromonaco 3
plato 3
#####squarefoot 3
scolded 3
lott 3
irk 3
smackdown 3
retrospect 3
khattala 3
waukee 3
supper 3
prorubio 3
han 3
advancement 3
loudoun 3
unequivocally 3
altoona 3
eyebrowraising 3
plucked 3
binder 3
constitutio 3
appropriators 3
tame 3
danbury 3
martial 3
bats 3
females 3
pasadena 3
egypts 3
nonproliferation 3
platformvideo 3
grappled 3
chopping 3
rallgetty 3
geography 3
climbs 3
kuster 3
plunges 3
threeyearold 3
riders 3
rebounding 3
disconnect 3
downsides 3
thurmond 3
onc 3
proactive 3
zoe 3
buffer 3
discerning 3
backlogs 3
wests 3
selfproclaimed 3
grooming 3
nuptials 3
otto 3
carso 3
wheels 3
sunnyvale 3
roves 3
rejoin 3
photowilfredo 3
shutter 3
tvs 3
resorts 3
divine 3
thailand 3
bjp 3
jargon 3
midget 3
halsey 3
carters 3
sank 3
quicker 3
burnish 3
jurist 3
portrays 3
archivegetty 3
notquite 3
allegri 3
helium 3
twisting 3
assads 3
deliberating 3
courses 3
repayment 3
begged 3
scoops 3
occurs 3
essays 3
fangate 3
####unfiltered 3
emirates 3
mensch 3
blond 3
singles 3
arson 3
bullseye 3
indifference 3
secular 3
onefourth 3
thrive 3
empowering 3
lash 3
belo 3
admire 3
higginbottom 3
von 3
kno 3
mandat 3
rangers 3
spins 3
barbar 3
mcnewgetty 3
reverberated 3
sock 3
redoubled 3
atlantis 3
conley 3
erica 3
paired 3
globally 3
texassize 3
modernizing 3
degette 3
funneling 3
rohingya 3
pfc 3
wedge 3
lahoo 3
intelligent 3
pales 3
bruning 3
directv 3
mediocre 3
bums 3
erstwhile 3
farid 3
blogosphere 3
alassads 3
ackerman 3
uncommitted 3
droves 3
giffordss 3
destiny 3
insulting 3
steubenville 3
roughed 3
zinser 3
pummeling 3
cvs 3
nowruz 3
unimaginable 3
censoring 3
stateas 3
windowless 3
powe 3
wel 3
zimbabwe 3
gymnastics 3
flush 3
homemaker 3
tosses 3
brownafpgetty 3
tenuous 3
norquists 3
cms 3
panda 3
stardom 3
rockier 3
scaleddown 3
bundled 3
separates 3
adamant 3
cuddly 3
containment 3
elbow 3
hinting 3
souring 3
sharrettbloomberg 3
yougov 3
arch 3
schneider 3
purging 3
runningmate 3
alfetorireuters 3
deese 3
judith 3
onlin 3
mullen 3
mulled 3
easleyap 3
semanskyap 3
dogg 3
threeplus 3
germans 3
yettobenamed 3
completes 3
domesticity 3
frontline 3
awar 3
tavenner 3
psychologists 3
cleanenergy 3
cone 3
thursdaya 3
pawlentys 3
heartbroken 3
hans 3
uniquely 3
sabbatical 3
righteous 3
cooler 3
bork 3
pugnacious 3
adorable 3
gentler 3
antalya 3
prayed 3
walton 3
beds 3
treatmen 3
gigs 3
gus 3
antiobamacare 3
cranston 3
conservativ 3
intently 3
rainfall 3
nguyen 3
takeback 3
fullon 3
leeap 3
lounge 3
sandysthe 3
disgusted 3
vitters 3
snippet 3
raiser 3
fargo 3
headquartered 3
windsor 3
twitterati 3
premiered 3
sequestrationcaused 3
excoriated 3
recalcitrant 3
abroa 3
handpicked 3
perpetrators 3
sledding 3
empathy 3
starstudded 3
scum 3
winnertakeall 3
alleviate 3
verse 3
disputing 3
disproportionate 3
ama 3
amr 3
conducts 3
notsofriendly 3
feckless 3
nuggets 3
innocence 3
dallasfort 3
snooze 3
stare 3
qualifying 3
starr 3
atrisk 3
debaters 3
housework 3
cautioning 3
utahns 3
pique 3
patently 3
spendingcut 3
brisbane 3
chuckle 3
ferocious 3
uneven 3
inhome 3
brunswick 3
outpatient 3
vigilance 3
derthick 3
ces 3
hackathon 3
exasperated 3
punitive 3
morello 3
apparentl 3
ecommerce 3
hindered 3
#month 3
allisonap 3
confinement 3
stimson 3
ratify 3
meld 3
doctrinaire 3
outsourcerinchief 3
vault 3
moffatt 3
implosion 3
anticoup 3
energizing 3
showcased 3
youngsters 3
furloughing 3
payrolltax 3
bearer 3
disseminate 3
halffull 3
multicultural 3
iowan 3
undergone 3
sanfords 3
reworked 3
murrieta 3
moseley 3
jetsetting 3
seton 3
interventions 3
orbit 3
bribe 3
infringing 3
sheik 3
oneday 3
thinly 3
vampire 3
mccray 3
clara 3
highoctane 3
capandtrade 3
averaged 3
bookselling 3
thunderstorm 3
lithuania 3
butch 3
siena 3
contrerassweet 3
chartered 3
nastiest 3
biographical 3
reuterseric 3
vengeance 3
astonishing 3
indi 3
inherited 3
golfs 3
glendale 3
rifts 3
keg 3
unstoppable 3
retrospective 3
evacuees 3
###b 3
dawson 3
dmaine 3
insurmountable 3
woodwardthe 3
riverside 3
disappearance 3
cradle 3
reza 3
editorinchief 3
lagged 3
ordinances 3
diligently 3
politwoops 3
slaughterhouse 3
finch 3
hivaids 3
whoopi 3
bayh 3
coaching 3
void 3
fuelefficient 3
spaniards 3
disruption 3
voisardfor 3
renomination 3
cushing 3
salons 3
egos 3
blattman 3
lifesaving 3
exhorted 3
lachlan 3
shawnee 3
lorena 3
cumming 3
punctuated 3
downside 3
requisite 3
kilpatrick 3
knights 3
mcallen 3
sleeper 3
marie 3
imploded 3
jailed 3
thirdyear 3
resistant 3
monae 3
cyrus 3
puti 3
ridicule 3
reelecting 3
realizing 3
elle 3
weakly 3
ventured 3
etiquette 3
minutelong 3
masse 3
goodman 3
supervisory 3
oregonian 3
amherst 3
maxim 3
sequeste 3
murderers 3
starve 3
feminine 3
whiskey 3
gould 3
midgets 3
pontiff 3
muffins 3
awhile 3
utilities 3
humvees 3
balancedbudget 3
sovereignty 3
advises 3
majors 3
norris 3
meeks 3
ariel 3
freestyle 3
basket 3
fatalities 3
yazidi 3
kowskybloomberg 3
showcasing 3
brews 3
treacherous 3
pamela 3
clumsy 3
automakers 3
snowde 3
aloud 3
sheets 3
lenny 3
sigma 3
takin 3
travesty 3
dewine 3
miley 3
seas 3
malik 3
oberstar 3
pinckney 3
philosophically 3
wilton 3
firewall 3
biothreats 3
hardcore 3
ratchet 3
antony 3
ulysses 3
strait 3
synagogue 3
iraqis 3
convenes 3
overcrowding 3
handouts 3
leeway 3
clueless 3
zephyr 3
shailagh 3
fallacy 3
maumee 3
pastures 3
romneyryan#### 3
imagination 3
collegiate 3
boosters 3
myrick 3
clamps 3
residue 3
brackets 3
uncharted 3
usled 3
tacks 3
tolerant 3
nearperfect 3
saxonap 3
pests 3
postwar 3
winnow 3
singapore 3
aslan 3
jabbed 3
oddball 3
obstructed 3
mcdanie 3
blanco 3
ebert 3
mcauliffes 3
motorcycles 3
recycled 3
##magnitude 3
grainy 3
perilously 3
decisionmaking 3
photogerald 3
seating 3
underused 3
belgian 3
curt 3
superrich 3
stripper 3
rivlin 3
implies 3
stree 3
wistfully 3
vietnamese 3
maddie 3
abouta 3
promarijuana 3
carneys 3
radcliffe 3
carlsonap 3
bartenders 3
tso 3
uncreditedap 3
blatant 3
recipes 3
catalonias 3
scant 3
heroic 3
demurred 3
thicket 3
americanstatesman 3
prolong 3
fixer 3
precedents 3
criminalizing 3
antiwashington 3
boundary 3
##pound 3
antics 3
revoked 3
reborn 3
osawatomie 3
workplaces 3
mcdermott 3
commenters 3
nicknamed 3
softspoken 3
excluding 3
happene 3
tomb 3
tome 3
socks 3
kinda 3
jamesbloomberg 3
rushes 3
glimmer 3
aggravated 3
whisper 3
identities 3
prater 3
gutierrezap 3
convicts 3
keane 3
mooresville 3
vermin 3
geraldo 3
feathers 3
luggage 3
stevie 3
resurfaced 3
lump 3
preventive 3
teleprompters 3
photophelan 3
sbeity 3
reinstatement 3
outfits 3
sevenminute 3
selfdeclared 3
normalization 3
belton 3
lunchtime 3
hardball 3
fontaine 3
broadwells 3
muc 3
mui 3
bep 3
dakot 3
smuggler 3
natives 3
sidestepped 3
obiang 3
impediment 3
obscene 3
dissenting 3
kaufman 3
eclipse 3
erosion 3
adelsons 3
roa 3
coalburning 3
bests 3
maliki 3
catapulted 3
cecily 3
tuxedo 3
abbas 3
teased 3
pickle 3
alinsky 3
yup 3
squashed 3
spurned 3
usefulness 3
pastime 3
operatio 3
ntsb 3
disproportionately 3
knopf 3
illadvised 3
refinery 3
saylesap 3
roskam 3
flashing 3
reformed 3
kirby 3
motherinlaw 3
acute 3
googled 3
hipster 3
whales 3
relie 3
relic 3
treadwell 3
doses 3
yemens 3
tasty 3
ravenel 3
immunity 3
mississipp 3
bullets 3
wifi 3
treason 3
cementing 3
dairy 3
crest 3
flick 3
translating 3
toes 3
kibbe 3
cataract 3
goper 3
rothenberg 3
concentrating 3
grossman 3
manisap 3
eclectic 3
affirmativeaction 3
deciders 3
loops 3
cance 3
commemorative 3
enlarged 3
scooby 3
amass 3
exert 3
architects 3
drumbeat 3
traub 3
thendemocratic 3
sputtering 3
walberg 3
viewership 3
regulated 3
mistak 3
pining 3
bransford 3
algeria 3
instructor 3
probationary 3
shortened 3
antithesis 3
styl 3
numberone 3
restraint 3
monticello 3
objecting 3
miam 3
turbulence 3
patel 3
exfelons 3
pennypinching 3
vetoing 3
anticastro 3
inspects 3
okays 3
dodging 3
exemployees 3
warmed 3
reassurance 3
reuterssteve 3
roared 3
savaging 3
fertilized 3
accommodations 3
shaded 3
sheila 3
kurtz 3
eagles 3
syndrome 3
unchecked 3
edit 3
cursive 3
prizewinning 3
voteridentification 3
telemarketers 3
trumpian 3
secto 3
biting 3
insane 3
bonner 3
stephan 3
tidbit 3
consoling 3
signups 3
creditors 3
faints 3
abductions 3
wha 3
longevity 3
ahlquist 3
airman 3
partie 3
multipronged 3
harshest 3
vicki 3
lightweight 3
undertaken 3
taieb 3
chutzpah 3
safest 3
parity 3
melee 3
syfy 3
monsivaisassociated 3
fords 3
pasta 3
outset 3
highskilled 3
moneap 3
pumps 3
counterintelligence 3
payoff 3
protestants 3
shielding 3
cavernous 3
andre 3
remnant 3
overshadow 3
thensenator 3
segregationist 3
artillery 3
marginalize 3
cheri 3
talkedabout 3
mtetwa 3
lennihan 3
swaths 3
waive 3
nightmar 3
fleming 3
shopped 3
cooling 3
noshow 3
prosantorum 3
farright 3
mystique 3
nea 3
shuffling 3
avenger 3
mamas 3
federalist 3
deyoung 3
penalize 3
interpret 3
counterattack 3
headly 3
ariana 3
nword 3
eldridge 3
allbutannounced 3
pioneers 3
rescinded 3
alum 3
sakumaap 3
seaside 3
pavement 3
commonplace 3
mcleod 3
sociology 3
foo 3
brokerage 3
balking 3
datacollection 3
despair 3
melania 3
blockading 3
truthteller 3
kasic 3
onefifth 3
persecution 3
jarring 3
mobbed 3
midjuly 3
assertive 3
studied 3
believer 3
shockingly 3
disagreeable 3
sclerosis 3
carterap 3
solitary 3
zivotofsky 3
middleton 3
revere 3
governmentissued 3
container 3
bordering 3
pennsylvanian 3
intensely 3
meddling 3
fragmented 3
wilsons 3
mince 3
fortify 3
inappropriately 3
anti 3
crawford 3
shepard 3
graceful 3
spiraling 3
firstround 3
exaggerating 3
alarmist 3
formative 3
pow 3
asbury 3
clan 3
autos 3
riveting 3
contingent 3
malfunctioning 3
elsheikh 3
aj 3
ax 3
az 3
novice 3
hagans 3
cpl 3
impossibility 3
lupita 3
reasoning 3
faneuil 3
mudslinging 3
bestow 3
archived 3
petroleum 3
spoils 3
nagin 3
gallon 3
entrepreneurship 3
heckle 3
backyard 3
acquisitions 3
hauling 3
skipper 3
likeness 3
geunhye 3
bumped 3
twentyone 3
buffetts 3
emblazoned 3
spock 3
kleefisch 3
tpa 3
yarmuth 3
sarvis 3
tpx 3
indicator 3
wardman 3
symptom 3
overwhelm 3
shortlived 3
scams 3
shortsighted 3
wheeler 3
fung 3
pilger 3
unwittingly 3
decor 3
choking 3
segallgetty 3
pillars 3
deflated 3
sheraton 3
unfazed 3
fivethirtyeight 3
jokingly 3
machin 3
hatched 3
hemingway 3
faas 3
dannel 3
beyon 3
danner 3
outlooks 3
mediterranean 3
ukip 3
panelists 3
les 3
newts 3
trumped 3
woodlands 3
reinstates 3
reinstated 3
rkansas 3
luster 3
welldocumente 3
sufficiently 3
weigel 3
altafferap 3
dismantled 3
retooling 3
davie 3
kendall 3
pines 3
thunderbirds 3
straining 3
blockbuster 3
rigell 3
mechanism 3
gehry 3
claremont 3
ignites 3
bourbon 3
golinski 3
heartburn 3
cj 3
fodde 3
cq 3
toothless 3
grinning 3
lush 3
newsmakers 3
exgovernor 3
habitat 3
benefitted 3
seeds 3
behemoth 3
weston 3
palmyra 3
prodded 3
marlboro 3
republicandominated 3
oppression 3
forthrightly 3
consolidates 3
postmortem 3
slowest 3
blistering 3
distort 3
bewildered 3
fogo 3
fallonbloomberg 3
kantor 3
aki 3
harnessing 3
wenstrup 3
greed 3
zen 3
theo 3
###year 3
councils 3
vessels 3
enhancing 3
hardwon 3
renting 3
chastened 3
props 3
downgrades 3
belfast 3
cos 3
coy 3
coo 3
laquan 3
coherent 3
jeopardizes 3
sladkyap 3
grizzly 3
provocations 3
draftkings 3
delighted 3
rogin 3
veterinarian 3
religiously 3
giftgiving 3
handmade 3
austan 3
sandbergs 3
humo 3
maness 3
mendham 3
unregulated 3
eke 3
terminal 3
mchugh 3
gathers 3
pretoria 3
burrowing 3
brazen 3
endgame 3
tagged 3
nitrogen 3
inflicted 3
shalala 3
streaks 3
ey 3
showa 3
taxed 3
omitted 3
callout 3
peck 3
londonderry 3
misrepresenting 3
ratio 3
bankrupting 3
closeness 3
homegrown 3
seldom 3
crowdfunded 3
yuma 3
talented 3
gopauthored 3
talkradio 3
obstructing 3
hectic 3
chop 3
operator 3
stoppage 3
cottage 3
punditry 3
mourned 3
retrial 3
jedi 3
lesbos 3
multinational 3
unsurprisingly 3
rore 3
surprisin 3
mcclainthe 3
percent#### 3
reshaping 3
fu 3
alfordap 3
hardesthit 3
factories 3
finer 3
onehour 3
####worst 3
prenatal 3
alford 3
taft 3
qampa 3
bask 3
sheikh 3
inboxes 3
kindly 3
blend 3
zumba 3
colby 3
workouts 3
progun 3
reminisced 3
descriptions 3
woe 3
unrelenting 3
cartwright 3
luray 3
wet 3
contes 3
shaw 3
shah 3
sham 3
chronicles 3
enthusiastically 3
kayyem 3
besieged 3
lowprofile 3
photomolly 3
languishing 3
spectators 3
heroine 3
gw 3
ge 3
customersatisfaction 3
decadelong 3
punishing 3
cupcakes 3
valet 3
juries 3
centur 3
jails 3
ambivalence 3
foment 3
unsubtle 3
diazap 3
topranking 3
wellworn 3
castros 3
prognosticators 3
innovida 3
ecb 3
trainin 3
behin 3
vetoproof 3
fella 3
hyperbolic 3
bel 3
midwesterner 3
kiddie 3
arabian 3
photonati 3
flickr 3
extolling 3
herbertap 3
moye 3
inaccurately 3
claps 3
varanasi 3
effusively 3
absorb 3
nats 3
moynihan 3
cavalcade 3
denali 3
outoftown 3
chokes 3
hu 3
dmv 3
offstage 3
middletons 3
indiscretions 3
vladmir 3
spence 3
factfree 3
reuterscarlo 3
pyongyang 3
comprised 3
tweeps 3
typo 3
kumar 3
norwood 3
polio 3
ambivalent 3
bankroll 3
exaggerate 3
baylor 3
steward 3
obamaloney 3
midsummer 3
swells 3
stutzman 3
laxalt 3
childcare 3
olbermann 3
deflecting 3
teaparty 3
neat 3
reconnaissance 3
sidelined 3
bottled 3
bucked 3
crossposted 3
clementbloomberg 3
germanys 3
reconsidering 3
haridopolos 3
tripped 3
heinous 3
notification 3
burk 3
frightened 3
fork 3
establishmen 3
foru 3
daddy 3
marke 3
ballooning 3
contemporary 3
shave 3
natoled 3
councilors 3
reinvention 3
rorschach 3
waller 3
supremes 3
gearan 3
differs 3
aspirations 3
aficionados 3
leadershi 3
scandalized 3
manassas 3
kingmaker 3
briefs 3
clintona 3
horowitz 3
personalized 3
pranks 3
glamour 3
whereabouts 3
ju 3
tur 3
barre 3
captivity 3
aboutface 3
wizards 3
surrenders 3
voluntarily 3
longheld 3
mornings 3
deadlock 3
perennially 3
deterrent 3
tamerlan 3
bevy 3
wittes 3
billie 3
falk 3
mukasey 3
dashing 3
bombin 3
extinction 3
cultivation 3
dee 3
reignites 3
alibaba 3
energies 3
edmund 3
dolls 3
wally 3
seniority 3
reinstating 3
antiplanned 3
wager 3
obligatory 3
mentality 3
highearning 3
plame 3
superpac 3
allclear 3
clementa 3
cramped 3
ku 3
cheaper 3
uschina 3
goldwater 3
envelopes 3
stowaway 3
ike 3
reconsidered 3
newborn 3
patiently 3
lemieux 3
crutch 3
distressed 3
teapartybacked 3
encountered 3
twee 3
copying 3
####a 3
dishonesty 3
reapportionment 3
pilgrimage 3
mufson 3
baca 3
distorting 3
crony 3
dalai 3
creigh 3
blige 3
nepotism 3
fisher 3
strolled 3
query 3
brzezinski 3
ankara 3
zalubowski 3
subtitle 3
rightleaning 3
bachelor 3
intercept 3
agribusiness 3
greedygetty 3
manufacturer 3
roar 3
abcs 3
tattoo 3
warmin 3
accusers 3
shinsekis 3
franz 3
foreclosures 3
offmessage 3
boyish 3
gravity 3
improprieties 3
usafrica 3
sisterinlaw 3
voterapproved 3
eyebrow 3
madam 3
untrue 3
maddow 3
legit 3
freely 3
assure 3
glorious 3
caverns 3
brasilia 3
week#### 3
horwitz 3
gasped 3
overselling 3
exceeds 3
overshadowed 3
ignatius 3
coaster 3
nastier 3
insert 3
worke 3
tongueincheek 3
soontobeofficial 3
alexanders 3
legends 3
bud 3
gatekeeper 3
wilsonpool 3
trolled 3
nonresident 3
stanton 3
confetti 3
nextgen 3
ridiculed 3
loosen 3
joyous 3
ltd 3
enviros 3
algorithms 3
underpaid 3
exhibits 3
cronyism 3
stringer 3
expo 3
jentleson 3
ruckus 3
juli 3
rumble 3
abe 3
orderly 3
huffakergetty 3
bluestate 3
geek 3
thwarting 3
transvaginal 3
bost 3
adage 3
contamination 3
lessen 3
selffunding 3
feuded 3
alamo 3
displeasure 3
muchmaligned 3
oabrien 3
bains 3
kornze 3
kristof 3
lacivita 3
eiffel 3
backward 3
nittygritty 3
sloppy 3
substitute 3
distaste 3
noncontroversial 3
angelina 3
farmworkers 3
hamburger 3
typeface 3
unbelievable 3
noncandidate 3
tipped 3
unbelievably 3
gerard 3
cheyenne 3
warranted 3
nodding 3
realism 3
infuriated 3
tempers 3
antideportation 3
coax 3
university#news 3
renaming 3
perch 3
whcd 3
bypassing 3
freaking 3
nalin 3
fihri 3
rendell 3
sortof 3
#h 3
kahn 3
tamir 3
robbed 3
crusades 3
punched 3
helmet 3
atkins 3
photoaustin 3
implemente 3
pariah 3
tonya 3
goofy 3
literall 3
calmed 3
subdued 3
paralysis 3
mutually 3
op 3
rehberg 3
speculated 3
humphreyap 3
wellliked 3
soprano 3
preside 3
cbc 3
totaling 3
ebol 3
regents 3
unconstitutionally 3
uglier 3
unscathed 3
seals 3
surgical 3
bubbles 3
tee 3
tes 3
ovarian 3
arlie 3
epitome 3
coverag 3
deadlocks 3
cultivate 3
chicagos 3
emulate 3
proverbial 3
corporal 3
temperature 3
swarm 3
moat 3
janner 3
shareholder 3
stoner 3
stoned 3
likening 3
drugmaker 3
unforced 3
brics 3
pc 3
po 3
hormel 3
tweaking 3
guestblogging 3
noreaster 3
birch 3
earmark 3
bounces 3
abilities 3
loading 3
sequesters 3
marlin 3
toptobottom 3
kailua 3
canal 3
sonny 3
platforms 3
stalking 3
variant 3
disposal 3
nazis 3
lodging 3
infection 3
ashcroft 3
calculation 3
locking 3
sweat 3
joanne 3
polished 3
anonymously 3
nostalgia 3
inspecting 3
satellites 3
clinching 3
loquacious 3
dharapakreuters 3
fawning 3
comrade 3
val 3
hotlycontested 3
phrases 3
longlasting 3
sincerity 3
fourthquarter 3
dgjackson 3
hardcover 3
########s 3
ralston 3
shedding 3
chutes 3
bending 3
cried 3
backroom 3
outfitters 3
mines 3
firstdegree 3
dismissals 3
underage 3
himsel 3
multistate 3
republishing 3
inherently 3
rhoades 3
sinjar 3
pierce 3
basics 3
uttering 3
mustsee 3
resilient 3
admiral 3
gardnergetty 3
kaling 3
cutbacks 3
rancor 3
overhauls 3
wrought 3
solutionsvideo 3
crowned 3
shipped 3
speedy 3
tempting 3
thankless 3
vitro 3
livelihoods 3
massively 3
percentages 3
grips 3
rabat 3
morrisbloomberg 3
honda 3
spilling 3
dipping 3
figur 3
lebowski 3
glasgow 3
debu 3
iireuters 3
selfstyled 3
taunts 3
upscale 3
hourslong 3
winstonsalem 3
handshake 3
ratcheting 3
ballooned 3
srebrenica 3
governorelect 3
entrants 3
notsogreat 3
sol 3
obsessives 3
nova 3
otter 3
cleaver 3
theaters 3
caldwell 3
spats 3
wannabes 3
ineffective 3
curtailing 3
raking 3
mascot 3
pretend 3
gunfire 3
encampment 3
provincial 3
si 3
flips 3
tore 3
twohour 3
shouted 3
cropping 3
daschle 3
stalling 3
owing 3
dionnethe 3
abide 3
ascendant 3
siege 3
reshuffle 3
footwear 3
gyllenhaal 3
stuffed 3
bits 3
spender 3
wink 3
mazie 3
compress 3
herschel 3
inserted 3
scarce 3
agema 3
fiveyearold 3
priest 3
uncover 3
abramson 3
mann 3
yearly 3
dropouts 3
endures 3
polla 3
endured 3
ivy 3
fatima 3
safeguards 3
rubens 3
snark 3
isiss 3
kenner 3
stroganoff 3
unseasonably 3
hea 3
childmigrant 3
slopes 3
mccainfeingold 3
photosue 3
moroccos 3
drafts 3
waived 3
mast 3
ty 3
th 3
ti 3
homepage 3
cofounders 3
fiscalcliff 3
samoa 3
honolul 3
befitting 3
sizing 3
reprimanded 3
relinquishes 3
waved 3
waver 3
volleyball 3
secondguessing 3
misogyny 3
darth 3
cruises 3
allwhite 3
ordained 3
quizzes 3
neon 3
exboyfriend 3
hbos 3
demons 3
compliment 3
risbergap 3
underperforming 3
dealmaker 3
systematic 3
wideopen 3
sydney 3
yields 3
senato 3
shooters 3
output 3
meehan 3
benefactors 3
mayberry 3
montpelier 3
threecountry 3
u# 3
sixty 3
menino 3
postretirement 3
irrepressible 3
seaworld 3
maclean 3
apcharles 3
jody 3
bette 3
hathaway 3
tents 3
britons 3
shortest 3
newlyelected 3
leasing 3
bother 3
souzathe 3
notsoeasy 3
scorn 3
defenseless 3
hyperpartisanship 3
pistol 3
darryl 3
smilin 3
robertsreuters 3
snowfall 3
reexamine 3
chastised 3
adultery 3
birthcontrol 3
tareq 3
nerves 3
continetti 3
complacency 3
marquis 3
incompetent 3
aijen 3
inn 3
vein 3
outraising 3
desirable 3
diverted 3
whack 3
spea 3
urinating 3
cher 3
horn 3
deliberate 3
conglomerate 3
f## 3
infusion 3
zeroed 3
farce 3
schriock 3
halliburton 3
austere 3
encompassing 3
friedan 3
vidal 3
alexis 3
schemes 3
whining 3
hooked 3
remorse 3
delicious 3
snags 3
lunatics 3
happily 3
improbable 3
belttightening 3
responder 3
thewepa 3
deepest 3
hrc 3
morningafter 3
miserably 3
gosar 3
convertible 3
condoms 3
drafting 3
thoughtprovoking 3
visualization 3
boxed 3
salahi 3
kearney 3
mulls 3
filming 3
timehonored 3
crossparty 3
wal 3
wag 3
truc 3
liens 3
pickering 3
rwandan 3
classmate 3
teeing 3
trickledown 3
wolfe 3
penalizes 3
stings 3
transgendered 3
rebuffed 3
sweeney 3
playful 3
cosponsor 3
chattering 3
bursts 3
outofwork 3
communicating 3
carr 3
argo 3
ageold 3
perino 3
shuler 3
quad 3
respectability 3
troublesome 3
underemployed 3
melanie 3
michelly 3
upgrade 3
shepherding 3
cannon 3
keyed 3
overworked 3
nowsen 3
unapologetically 3
territorial 3
ruby 3
steinberg 3
commanded 3
extravaganza 3
anecdotal 3
breeze 3
permissible 3
mingling 3
calendars 3
viser 3
misquote 3
miracle 3
moreno 3
unraveling 3
venn 3
teared 3
wheat 3
lov 3
miguel 3
upending 3
drift 3
zichal 3
guliyev 3
jensen 3
higgins 3
trumpeting 3
teachout 3
entails 3
pawns 3
prose 3
hamburgers 3
indefatigable 3
doughnuts 3
anticipates 3
misstatement 3
arsenal 3
leavitt 3
apprentice 3
breuer 3
cumbersome 3
evasion 3
mediaite 3
belowtheradar 3
reminiscent 3
paranoid 3
paranoia 3
threeword 3
catcher 3
badge 3
murrow 3
unconscious 3
footnote 3
assigning 3
dialing 3
samaras 3
crucible 3
carousing 3
weakest 3
antiobama 3
exercising 3
incirlik 3
minimal 3
flogging 3
taboo 3
whittled 3
cherished 3
sinai 3
specialty 3
bolsters 3
psychopath 3
excludes 3
miners 3
bogota 3
waking 3
denunciations 3
redefining 3
cosmo 3
negrete 3
rands 3
ferrets 3
highdollar 3
skirt 3
arrangement 3
circular 3
bakery 3
offsetting 3
farmland 3
beirne 3
slaughterhouses 3
nyad 3
preps 3
lecturer 3
passionately 3
laurent 3
noteworthy 3
rash 3
sowing 3
kony 3
grad 3
coalfired 3
allotted 3
outsiders 3
photolas 3
sari 3
richardsap 3
intimidate 3
transformative 3
amends 3
berating 3
vide 3
linsanity 3
employersponsored 3
drizzle 3
puppies 3
relegated 3
beatrice 3
upsets 3
erie 3
astounding 3
powdery 3
dissolution 3
strayed 3
preferences 3
liberated 3
managementvideo 3
overworking 3
mammogram 3
watering 3
dirksen 3
plantation 3
missionary 3
sleepless 3
mounts 3
naughty 3
bonita 3
bouncing 3
extracting 3
seep 3
whimper 3
mint 3
governmentcentered 3
dos 3
stabbing 3
clobbered 3
pumpkin 3
reprinting 3
pets 3
triples 3
#to# 3
suppress 3
decrepit 3
censored 3
reauthorizing 3
conservativealigned 3
bigstockphoto 3
consciousness 3
grading 3
valentines 3
victorious 3
nearcertain 3
panora 3
boomed 3
skirted 3
insolvency 3
marissa 3
hazzard 3
photodamian 3
reunite 3
conveniently 3
bruised 3
stew 3
baer 3
univers 3
factcheckers 3
coburns 3
mae 3
journals 3
mal 3
outpouring 3
rarified 3
listing 3
gonzales 3
fassi 3
antiwall 3
placards 3
mouthpieces 3
collapsed 3
dice 3
exaggeration 3
tornadoravaged 3
flyaround 3
tuck 3
sensible 3
shower 3
nimoy 3
predicament 3
ignition 3
rajiv 3
lucian 3
upended 3
bumping 3
barrasso 3
hamburgassociated 3
shuster 3
gloom 3
hillaryland 3
grin 3
rockville 3
pittsburg 3
explode 3
louisianas 3
mixes 3
provisional 3
purgatory 3
deen 3
prism 3
resembled 3
iconoclastic 3
woosley 3
preposterous 3
geithners 3
contradicts 3
statuary 3
obergefell 3
formulating 3
iranians 3
deteriorated 3
fisa 3
childish 3
eightyear 3
reinforces 3
mcdaniels 3
munozreuters 3
livestream 3
carnage 3
notwithstanding 3
flared 3
barackobama 3
devastate 3
merchandise 3
huff 3
upsetting 3
dances 3
dancer 3
chatted 3
gal 3
gai 3
rai 3
flanigon 3
amps 3
hastings 3
circling 3
localities 3
humorous 3
pricing 3
brent 3
warera 3
extensions 3
nsc 3
frenzied 3
melanne 3
washingtonarea 3
dispirited 3
cybercrime 3
misfires 3
aliv 3
everywher 3
legality 3
bind 3
ruinardthe 3
decorum 3
thrill 3
buena 3
venerable 3
ghraib 3
grieving 3
tributes 3
neutralize 3
mis 3
rncs 3
skinny 3
galvanizing 3
coworker 3
pollinators 3
plugin 3
unearthed 3
gaze 3
elects 3
finisher 3
jeanette 3
lawabiding 3
antonis 3
juncker 3
unfiltered 3
shrug 3
bustling 3
swimmingly 3
powerpoint 3
obliterated 3
proceeds 3
littered 3
searchable 3
bicycle 3
fabulous 3
innocuously 3
ventures 3
julio 3
carusone 3
mayhem 3
jetliner 3
scolding 3
eyeballs 3
complexity 3
trillions 3
clapper 3
hasselbeck 3
swapped 3
eugene 3
tourist 3
confuse 3
fraught 3
johnstonap 3
stipend 3
hagman 3
tou 3
bloated 3
paleo 3
snob 3
poisonous 3
whitehouse 3
disgust 3
procochran 3
techies 3
gamed 3
proimmigration 3
exterior 3
majoritymuslim 3
repudiating 3
portal 3
seasonal 3
elf 3
els 3
authorship 3
reevaluate 3
proceeding 3
trafficker 3
nunes 3
deluged 3
voisin 3
annoying 3
nods 3
llc 3
discern 3
ibrahim 3
lohan 3
vouches 3
nga 3
orangeburg 3
noticeable 3
workrelated 3
bankrolling 3
dislikes 3
mortality 3
invests 3
deflategate 3
superlatives 3
populated 3
obsession 3
cancele 3
oasis 3
rented 3
bounty 3
ebrahim 3
jihadist 3
rena 3
probed 3
reichert 3
misfire 3
haugh 3
oconnor 3
kickbacks 3
circulating 3
diners 3
armchair 3
poe 3
retweeting 3
handson 3
hyatt 3
countdow 3
alphabetical 3
rosy 3
statemen 3
confined 3
subcommittees 3
burdens 3
overheated 3
nails 3
lantern 3
amongst 3
photostephan 3
tanner 3
spacecraft 3
disc 3
jerome 3
homage 3
overload 3
kindof 3
walkerrubio 3
identifiable 3
outposts 3
bodes 3
imaging 3
unthinkable 3
smialowskibrendan 3
assailant 3
characterizes 3
sympathy 3
newsmarist 3
bookworm 3
deans 3
scads 3
delinquent 3
unrealistic 3
moses 3
afsa 3
amounting 3
kilmeade 3
franchise 3
secretarygeneral 3
java 3
flows 3
bartlett 3
cheek 3
shapes 3
streetcar 3
costeffective 3
tymoshenko 3
stossel 3
generates 3
missio 3
edt 3
cemeteries 3
artery 3
antibias 3
gullible 3
unconditional 3
confidante 3
sip 3
adjourns 3
blustery 3
immersed 3
flex 3
rockets 3
frontier 3
exporting 3
outlandish 3
####er 3
congenital 3
rarity 3
blip 3
dardenne 3
taxfiling 3
petros 3
smialowski 3
politicized 3
plaintiff 3
diehard 3
tressler 3
tissues 3
hicks 3
malls 3
sixmonth 3
samson 3
convocation 3
coaches 3
lopsided 3
ingredients 3
personalit 3
putative 3
counteroffer 3
tumble 3
demeanor 3
scares 3
asinine 3
artifacts 3
hitter 3
relents 3
cookreuters 3
incurred 3
gorham 3
digit 3
whitman 3
pulse 3
maloney 3
novoogaryovo 3
herd 3
vicepresident 3
sizeable 3
marketers 3
occupying 3
georgias 3
somebodys 3
hog 3
hoc 3
assemblywoman 3
alias 3
nonpublic 3
addicted 3
whit 3
trending 3
similarly 3
chugging 3
roughead 3
pneumonia 3
corny 3
nineday 3
prin 3
hazy 3
sanctioning 3
personalize 3
inextricably 3
roller 3
pity 3
patented 3
sacrificing 3
triggers 3
episcopal 3
thiessenap 3
posen 3
ruffles 3
detective 3
lowerincome 3
launchers 3
cobert 3
riecken 3
financiers 3
twittercomdgjacksonstat 3
crowdsourcing 3
backgroun 3
dreaded 3
explorer 3
suck 3
morissette 3
governmenttransparency 3
paraded 3
blu 3
superiors 3
allstar 3
pollste 3
pung 3
silhouetted 3
rezaian 3
tipster 3
structured 3
siding 3
glossy 3
sophia 3
rmn 3
skyline 3
fearless 3
weeka 3
aoyagi 3
taser 3
speedway 3
bivens 3
underestimate 3
christens 3
phototony 3
grantland 3
grumpy 3
underwa 3
checkbooks 3
countrywide 3
gaggle 3
tots 3
uscinski 3
certifying 3
terrillap 3
mice 3
socialnetworking 3
flirt 3
exhausted 3
awry 3
wartime 3
gopaligned 3
bremen 3
misinformation 3
disruptions 3
vin 3
vip 3
refueling 3
teed 3
hedgefund 3
juliette 3
soundtrack 3
leroy 3
baier 3
designation 3
loosely 3
visafree 3
reassures 3
terrify 3
disadvantages 3
aplauren 3
medea 3
cockpit 3
votearama 3
refilling 3
disenchanted 3
borge 3
firsthand 3
shadid 3
gabe 3
moroccan 3
parnassthe 3
frightening 3
byron 3
c### 3
klingon 3
knees 3
alqaida 3
rite 3
photojulio 3
templeton 3
centennial 3
tacoma 3
comebac 3
displeased 3
stacy 3
strobe 3
imposes 3
passiveaggressive 3
serengeti 3
defunds 3
imaine 3
johanson 3
sneaky 3
mitigate 3
heartthrob 3
tara 3
ustr 3
##seat 3
lambasting 3
decimated 3
titanic 3
ratcheted 3
whistleblowing 3
vaccinated 3
doubtful 3
flopped 3
outofpocket 3
undertaking 3
##person 3
extraordinarily 3
rourkeap 3
trivial 3
withstand 3
dogging 3
webbs 3
combing 3
whispers 3
blurry 3
hubert 3
booked 3
#####plus 3
closeup 3
exporters 3
chapel 3
halfbilliondollar 3
kudos 3
spooks 3
charred 3
tolerates 3
wors 3
indie 3
uaw 3
zings 3
br 3
diesel 3
canterbury 3
tangle 3
hedging 3
cristobal 3
contrasted 3
photodon 3
charlott 3
stead 3
scrutinizing 3
caved 3
chiding 3
duggars 3
disservice 3
preeminent 3
straits 3
descent 3
grapple 3
perimeter 3
alums 3
impolitic 3
considerations 3
editions 3
norcross 3
standoffs 3
emergencies 3
pedoncelliap 3
sidewalk 3
upped 3
envelope 3
clue 3
bemoaning 3
imitation 3
refine 3
recordbreaking 3
pinata 3
assailing 3
republicanism 3
denmark 3
happenings 3
vehemently 3
everhart 3
nuanced 3
photochuck 3
photoalan 3
militaryrich 3
unfit 3
skew 3
mandating 3
sudanese 3
tomblin 3
dovarganesap 3
enjoyment 3
alltoofamiliar 3
nestled 3
defers 3
laboratories 3
nielsen 3
raqqa 3
ashraf 3
allocated 3
percentagepoint 3
politicalmedia 3
assumes 3
paraphrase 3
scanned 3
ignor 3
wields 3
bombarded 3
inversions 3
gayle 3
rmont 3
creepy 3
sudans 3
weathering 3
publicemployee 3
giulianis 3
nowinfamous 3
raza 3
derived 3
bergdahls 3
solving 3
semiannual 3
dulles 3
pinned 3
bowed 3
esam 3
definedbenefit 3
gallupgetty 3
gleefully 3
useless 3
alpha 3
blackface 3
ensconced 3
prague 3
engel 3
philanthropist 3
fiance 3
upordown 3
mutiny 3
fannie 3
baseline 3
simultaneous 3
redoubling 3
yankees 3
confiscation 3
rebranding 3
royalties 3
toyota 3
budging 3
salaried 3
andahalf 3
tracing 3
dovarganes 3
newer 3
frosh 3
restarted 3
luminaries 3
rested 3
hallways 3
yazidis 3
hive 3
senterap 3
ardent 3
gabfest 3
congratulates 3
exhaustive 3
confuses 3
guatemalan 3
afterthefact 3
surrounds 3
playground 3
unequivocal 3
referral 3
keller 3
balloting 3
wilfredo 3
lorne 3
perle 3
untimely 3
corbin 3
doubting 3
mgm 3
mindy 3
thinktank 3
maximize 3
solisassociated 3
kimball 3
tripoli 3
reactionary 3
photobill 3
safari 3
savannah 3
atoll 3
grijalva 3
spanishspeaking 3
rodeo 3
additions 3
virginiabased 3
networking 3
subjective 3
cruel 3
journalconstitution 3
greeks 3
obstruction 3
forwar 3
realignment 3
sais 3
hones 3
capitalism 3
cornerback 3
fixation 3
afforded 3
principled 3
upstages 3
restricted 3
haggis 3
beatty 3
rigorous 3
churc 3
chess 3
kean 3
fixlist 3
pledg 3
illegitimate 3
flagged 3
winnable 3
shultz 3
everchanging 3
eggnog 3
cobble 3
prosperous 3
growt 3
smokes 3
superbug 3
manual 3
bolo 3
bert 3
secondhand 3
diagnose 3
adjourning 3
almanac 3
nationalize 3
villa 3
pennsylvani 3
overhau 3
sported 3
franco 3
beholder 3
sout 3
coretta 3
gradual 3
ours 3
battlefields 3
abortio 3
escort 3
dash 3
canton 3
nadine 3
disconcerting 3
gerrymandered 3
raciallymotivated 3
designates 3
singers 3
cervical 3
trader 3
venues 3
globetrotting 3
pad 3
ndaa 3
markus 3
derailment 3
amassed 3
jobtraining 3
adriano 3
affection 3
cables 3
parcel 3
coyness 3
worded 3
mathison 3
garth 3
chieftain 3
memoi 3
drewassociated 3
dispatching 3
megaphone 3
asheville 3
sharm 3
bathed 3
azerbaijan 3
walltowall 3
oka 3
ports 3
giveaway 3
dorsey 3
finland 3
rinaldithe 3
papassodaily 3
hugging 3
finn 3
hopped 3
marilynne 3
photoelaine 3
tavern 3
safeguarding 3
orca 3
surrendered 3
kourkounisgetty 3
obamaquester 3
primping 3
solicited 3
smalldollar 3
freygetty 3
snap 3
shoring 3
jolted 3
contacts 3
misplaced 3
chairma 3
errant 3
newsman 3
tirole 3
nashvill 3
accidental 3
georgians 3
arrange 3
reconciliation 3
onair 3
limo 3
lime 3
clocking 3
breakup 3
tearing 3
subscription 3
employe 3
employs 3
bones 3
attachment 3
onlookers 3
yielded 3
bombers 3
eerily 3
purported 3
subpoenaed 3
bridget 3
noncommittal 3
lunatic 3
gauging 3
kindness 3
heckling 3
bowman 3
facilitate 3
overpayments 3
reaffirm 3
dictate 3
idah 3
masto 3
pausing 3
reveling 3
goldway 3
stripes 3
beac 3
unauthorized 3
shapiro 3
dislodge 3
rileyafpgetty 3
dejakassociated 3
rowan 3
loselose 3
sexes 3
fostering 3
tsunis 3
mafia 3
nebraskalincoln 3
glitzy 3
trans 3
thorn 3
widen 3
leclaire 3
qualitative 3
chains 3
ablow 3
maze 3
tabloid 3
moudi 3
millionth 3
yell 3
thunderstorms 3
comparatively 3
turnerfairbank 3
critz 3
homeboy 3
allentown 3
guiding 3
loyola 3
jogging 3
alabam 3
muse 3
instagramming 3
burly 3
payouts 3
doover 3
washing 3
farenthold 3
fonte 3
steamy 3
retreats 3
quotable 3
warrenap 3
raj 3
drip 3
rat 3
audition 3
scripture 3
sabrina 3
pocketbooks 3
devout 3
rightward 3
rebounded 3
coalescing 3
brewed 3
latinas 3
trajectories 3
outnumbered 3
laptop 3
pitiful 3
advertise 3
lapsed 3
indispensable 3
ayers 3
lowpolling 3
permitting 3
propelling 3
hashing 3
bagwell 3
millionplus 3
comforting 3
hymn 3
stressful 3
patrols 3
crippled 3
tallying 3
unwarranted 3
clicking 3
weekplus 3
drown 3
beers 3
insights 3
brennans 3
flagship 3
burundian 3
ferry 3
renovation 3
devo 3
airtraffic 3
swank 3
penmanship 3
[...]
